{
  "version": "1.0",
  "truncation": null,
  "padding": null,
  "added_tokens": [],
  "normalizer": null,
  "pre_tokenizer": {
    "type": "ByteLevel",
    "add_prefix_space": false,
    "trim_offsets": true,
    "use_regex": true
  },
  "post_processor": {
    "type": "ByteLevel",
    "add_prefix_space": true,
    "trim_offsets": false,
    "use_regex": true
  },
  "decoder": {
    "type": "ByteLevel",
    "add_prefix_space": true,
    "trim_offsets": true,
    "use_regex": true
  },
  "model": {
    "type": "BPE",
    "dropout": null,
    "unk_token": null,
    "continuing_subword_prefix": null,
    "end_of_word_suffix": null,
    "fuse_unk": false,
    "byte_fallback": false,
    "ignore_merges": false,
    "vocab": {
      "\u0000": 0,
      "\u0001": 1,
      "\u0002": 2,
      "\u0003": 3,
      "\u0004": 4,
      "\u0005": 5,
      "\u0006": 6,
      "\u0007": 7,
      "\b": 8,
      "\t": 9,
      "\n": 10,
      "\u000b": 11,
      "\f": 12,
      "\r": 13,
      "\u000e": 14,
      "\u000f": 15,
      "\u0010": 16,
      "\u0011": 17,
      "\u0012": 18,
      "\u0013": 19,
      "\u0014": 20,
      "\u0015": 21,
      "\u0016": 22,
      "\u0017": 23,
      "\u0018": 24,
      "\u0019": 25,
      "\u001a": 26,
      "\u001b": 27,
      "\u001c": 28,
      "\u001d": 29,
      "\u001e": 30,
      "\u001f": 31,
      " ": 32,
      "!": 33,
      "\"": 34,
      "#": 35,
      "$": 36,
      "%": 37,
      "&": 38,
      "'": 39,
      "(": 40,
      ")": 41,
      "*": 42,
      "+": 43,
      ",": 44,
      "-": 45,
      ".": 46,
      "/": 47,
      "0": 48,
      "1": 49,
      "2": 50,
      "3": 51,
      "4": 52,
      "5": 53,
      "6": 54,
      "7": 55,
      "8": 56,
      "9": 57,
      ":": 58,
      ";": 59,
      "<": 60,
      "=": 61,
      ">": 62,
      "?": 63,
      "@": 64,
      "A": 65,
      "B": 66,
      "C": 67,
      "D": 68,
      "E": 69,
      "F": 70,
      "G": 71,
      "H": 72,
      "I": 73,
      "J": 74,
      "K": 75,
      "L": 76,
      "M": 77,
      "N": 78,
      "O": 79,
      "P": 80,
      "Q": 81,
      "R": 82,
      "S": 83,
      "T": 84,
      "U": 85,
      "V": 86,
      "W": 87,
      "X": 88,
      "Y": 89,
      "Z": 90,
      "[": 91,
      "\\": 92,
      "]": 93,
      "^": 94,
      "_": 95,
      "`": 96,
      "a": 97,
      "b": 98,
      "c": 99,
      "d": 100,
      "e": 101,
      "f": 102,
      "g": 103,
      "h": 104,
      "i": 105,
      "j": 106,
      "k": 107,
      "l": 108,
      "m": 109,
      "n": 110,
      "o": 111,
      "p": 112,
      "q": 113,
      "r": 114,
      "s": 115,
      "t": 116,
      "u": 117,
      "v": 118,
      "w": 119,
      "x": 120,
      "y": 121,
      "z": 122,
      "{": 123,
      "|": 124,
      "}": 125,
      "~": 126,
      "": 127,
      "": 128,
      "": 129,
      "": 130,
      "": 131,
      "": 132,
      "": 133,
      "": 134,
      "": 135,
      "": 136,
      "": 137,
      "": 138,
      "": 139,
      "": 140,
      "": 141,
      "": 142,
      "": 143,
      "": 144,
      "": 145,
      "": 146,
      "": 147,
      "": 148,
      "": 149,
      "": 150,
      "": 151,
      "": 152,
      "": 153,
      "": 154,
      "": 155,
      "": 156,
      "": 157,
      "": 158,
      "": 159,
      " ": 160,
      "¡": 161,
      "¢": 162,
      "£": 163,
      "¤": 164,
      "¥": 165,
      "¦": 166,
      "§": 167,
      "¨": 168,
      "©": 169,
      "ª": 170,
      "«": 171,
      "¬": 172,
      "­": 173,
      "®": 174,
      "¯": 175,
      "°": 176,
      "±": 177,
      "²": 178,
      "³": 179,
      "´": 180,
      "µ": 181,
      "¶": 182,
      "·": 183,
      "¸": 184,
      "¹": 185,
      "º": 186,
      "»": 187,
      "¼": 188,
      "½": 189,
      "¾": 190,
      "¿": 191,
      "À": 192,
      "Á": 193,
      "Â": 194,
      "Ã": 195,
      "Ä": 196,
      "Å": 197,
      "Æ": 198,
      "Ç": 199,
      "È": 200,
      "É": 201,
      "Ê": 202,
      "Ë": 203,
      "Ì": 204,
      "Í": 205,
      "Î": 206,
      "Ï": 207,
      "Ð": 208,
      "Ñ": 209,
      "Ò": 210,
      "Ó": 211,
      "Ô": 212,
      "Õ": 213,
      "Ö": 214,
      "×": 215,
      "Ø": 216,
      "Ù": 217,
      "Ú": 218,
      "Û": 219,
      "Ü": 220,
      "Ý": 221,
      "Þ": 222,
      "ß": 223,
      "à": 224,
      "á": 225,
      "â": 226,
      "ã": 227,
      "ä": 228,
      "å": 229,
      "æ": 230,
      "ç": 231,
      "è": 232,
      "é": 233,
      "ê": 234,
      "ë": 235,
      "ì": 236,
      "í": 237,
      "î": 238,
      "ï": 239,
      "ð": 240,
      "ñ": 241,
      "ò": 242,
      "ó": 243,
      "ô": 244,
      "õ": 245,
      "ö": 246,
      "÷": 247,
      "ø": 248,
      "ù": 249,
      "ú": 250,
      "û": 251,
      "ü": 252,
      "ý": 253,
      "þ": 254,
      "ÿ": 255,
      "Ā": 256,
      "ā": 257,
      "Ă": 258,
      "ă": 259,
      "Ą": 260,
      "ą": 261,
      "Ć": 262,
      "ć": 263,
      "Ĉ": 264,
      "ĉ": 265,
      "Ċ": 266,
      "ċ": 267,
      "Č": 268,
      "č": 269,
      "Ď": 270,
      "ď": 271,
      "Đ": 272,
      "đ": 273,
      "Ē": 274,
      "ē": 275,
      "Ĕ": 276,
      "ĕ": 277,
      "Ė": 278,
      "ė": 279,
      "Ę": 280,
      "ę": 281,
      "Ě": 282,
      "ě": 283,
      "Ĝ": 284,
      "ĝ": 285,
      "Ğ": 286,
      "ğ": 287,
      "Ġ": 288,
      "ġ": 289,
      "Ģ": 290,
      "ģ": 291,
      "Ĥ": 292,
      "ĥ": 293,
      "Ħ": 294,
      "ħ": 295,
      "Ĩ": 296,
      "ĩ": 297,
      "Ī": 298,
      "ī": 299,
      "Ĭ": 300,
      "ĭ": 301,
      "Į": 302,
      "į": 303,
      "İ": 304,
      "ı": 305,
      "Ĳ": 306,
      "ĳ": 307,
      "Ĵ": 308,
      "ĵ": 309,
      "Ķ": 310,
      "ķ": 311,
      "ĸ": 312,
      "Ĺ": 313,
      "ĺ": 314,
      "Ļ": 315,
      "ļ": 316,
      "Ľ": 317,
      "ľ": 318,
      "Ŀ": 319,
      "ŀ": 320,
      "Ł": 321,
      "ł": 322,
      "Ń": 323,
      "Âŀ": 324,
      "ÂŀÂŀ": 325,
      "ÂŁ": 326,
      "ÂĿ": 327,
      "ÂŀÂŀÂŀÂŀ": 328,
      "ÂŀÂ": 329,
      "Âł": 330,
      "ÂŀÂŁ": 331,
      "ÂŀÂĿ": 332,
      "Âľ": 333,
      "ÂŀÂŀÂŀÂŀÂŀÂŀÂŀÂŀ": 334,
      "ÂŀÂŀÂŁ": 335,
      "ÂŀÂŀÂĿ": 336,
      "Â¡": 337,
      "ÂĽ": 338,
      "Âļ": 339,
      "Â¢": 340,
      "ÂŀÂľ": 341,
      "ÂĻ": 342,
      "ÂŀÂŀÂŀÂŁ": 343,
      "Â£": 344,
      "ÂŀÂŀÂŀÂĿ": 345,
      "ÂŁÂŁ": 346,
      "Ä¼": 347,
      "ÂĿÂĿ": 348,
      "Âĺ": 349,
      "Â¤": 350,
      "Âĵ": 351,
      "ÂĹ": 352,
      "ÂĿÂŁ": 353,
      "Â¥": 354,
      "ÂŀÂĽ": 355,
      "ÂŀÂ¡": 356,
      "ÂŀÂŀÂŀ": 357,
      "ÂŀÂŀÂŀÂŀÂŀÂŀÂŀÂŀÂŀÂŀÂŀÂŀÂŀÂŀÂŀÂŀ": 358,
      "Âĸ": 359,
      "Â¦": 360,
      "ÂŀÂŀÂľ": 361,
      "ÂĿÂŀÂŀÂŀÂŀ": 362,
      "Âĳ": 363,
      "Âķ": 364,
      "ÂŁÂŀÂŀÂŀÂŀ": 365,
      "ÂĿÂŀÂŁ": 366,
      "ÂĶ": 367,
      "Â§": 368,
      "ÂŁÂŀÂĿ": 369,
      "ÂĿÂŀÂĿ": 370,
      "ÂĴ": 371,
      "Â¨": 372,
      "ÂŁÂŀÂŁ": 373,
      "ÂŁÂĿ": 374,
      "ÂŀÂļ": 375,
      "ÂŀÂ¢": 376,
      "Â©": 377,
      "Âª": 378,
      "ÂĲ": 379,
      "ÂĪ": 380,
      "Âı": 381,
      "ÂŀÂŀÂŀÂŀÂŀÂŀÂŁ": 382,
      "ÂŀÂŀÂŀÂŀÂŀÂŀÂĿ": 383,
      "Â«": 384,
      "Â¬": 385,
      "Âİ": 386,
      "ÂĿÂŀÂŀ": 387,
      "ÂĿÂľ": 388,
      "ÂŀÂŀÂŀÂŀÂŀÂŀÂŀÂŀÂŀÂŀÂŀÂŀ": 389,
      "ÂŁÂľ": 390,
      "ÂŁÂŀÂŀ": 391,
      "ÂŃ": 392,
      "ÂŀÂŀÂŀÂŀÂŀÂŀ": 393,
      "Â®": 394,
      "ÂĮ": 395,
      "Âį": 396,
      "ÂŀÂĻ": 397,
      "ÂŀÂ£": 398,
      "ÂĬ": 399,
      "Â´": 400,
      "ÂŁÂŀÂŀÂĿ": 401,
      "ÂĿÂŀÂŀÂŁ": 402,
      "ÂĿÂŀ": 403,
      "ÂŀÂŀÂŀÂŀÂŀÂŁ": 404,
      "Âĭ": 405,
      "ÂŀÂŀÂŀÂŀÂŀÂĿ": 406,
      "ÂĿÂŀÂŀÂĿ": 407,
      "ÂŁÂŀÂŀÂŁ": 408,
      "Â²": 409,
      "Â°": 410,
      "Âī": 411,
      "Âĩ": 412,
      "Â¯": 413,
      "ÂĦ": 414,
      "Âħ": 415,
      "Â¾": 416,
      "ÂĨ": 417,
      "ÂŁÂŀ": 418,
      "Âģ": 419,
      "Â±": 420,
      "ÂŀÂĺ": 421,
      "ÂŁÂŀÂľ": 422,
      "ÂŀÂŀÂĽ": 423,
      "ÂŀÂŀÂ¡": 424,
      "ġĀ": 425,
      "ÂľÂľ": 426,
      "ÂĢ": 427,
      "ÂŀÂ¤": 428,
      "Â³": 429,
      "Âĥ": 430,
      "ÂĤ": 431,
      "Âµ": 432,
      "ÂŀÂŀÂŀÂľ": 433,
      "ÂĿÂŀÂľ": 434,
      "ÂŀÂŁÂŀÂŀÂŀÂŀ": 435,
      "ÂĿÂĽ": 436,
      "ÂŁÂĽ": 437,
      "Â¸": 438,
      "ÂŀÂĹ": 439,
      "ÂĿÂ¡": 440,
      "Â¶": 441,
      "ÂŁÂ¡": 442,
      "ÂŀÂŀÂŀÂŀÂŀÂŀÂŀÂŀÂŀ": 443,
      "ÂŀÂ¥": 444,
      "ÂŀÂĿÂŀÂŀÂŀÂŀ": 445,
      "ÃĤ": 446,
      "ÂŀÂŁÂŀÂŁ": 447,
      "Â·": 448,
      "ÂĿÂŀÂŀÂŀÂĿ": 449,
      "ÂŀÂĿÂŀÂĿ": 450,
      "ÂŁÂŀÂŀÂŀÂŁ": 451,
      "Â»": 452,
      "ÂŀÂĸ": 453,
      "Ãī": 454,
      "ÂĿÂŀÂŀÂŀÂŁ": 455,
      "ÂĿÂŁÂŁ": 456,
      "Â¹": 457,
      "ÂŁÂŀÂŀÂŀÂĿ": 458,
      "ÂŀÂĿÂŀÂŁ": 459,
      "ÂŁÂĿÂĿ": 460,
      "ÂľÂŀÂŁ": 461,
      "ÂŀÂ¦": 462,
      "Âº": 463,
      "ÂĿÂŀÂ": 464,
      "ÂŀÂŀÂŁÂŀÂŁ": 465,
      "Â¼": 466,
      "ÂľÂŁ": 467,
      "ÂľÂŀÂĿ": 468,
      "ÂľÂĽ": 469,
      "ÂŀÂŀÂŀÂŀÂŁ": 470,
      "Â½": 471,
      "ÂŀÂŀÂĿÂŀÂŁ": 472,
      "ÂľÂ¡": 473,
      "ÂŀÂŀÂŀÂ": 474,
      "ÃĨ": 475,
      "ÂŀÂŀÂĿÂŀÂĿ": 476,
      "ÂŀÂŀÂļ": 477,
      "ÂľÂĿ": 478,
      "Ã£": 479,
      "ÂŀÂŀÂ¢": 480,
      "ÂľÂŀ": 481,
      "ÂŀÂŀÂŀÂŀÂŀÂŀÂŀÂŀÂŀÂŀ": 482,
      "ÂŀÂŀÂŀÂŀÂŀ": 483,
      "Â¿": 484,
      "ÃĬ": 485,
      "ÃĢ": 486,
      "ÂŁÂļ": 487,
      "ÂĿÂļ": 488,
      "ÂŁÂ¢": 489,
      "ÂľÂŀÂŀ": 490,
      "ÂĿÂ¢": 491,
      "ÂŀÂŀÂŁÂŀÂĿ": 492,
      "ÂŀÂŀÂŀÂŀÂŀÂŀÂŀÂŀÂŀÂŀÂŀÂŀÂŀÂŀÂŀÂŀÂŀÂŀÂŀÂŀÂŀÂŀÂŀÂŀÂŀÂŀÂŀÂŀÂŀÂŀÂŀÂŀ": 493,
      "ÂŀÂŁÂŀÂĿ": 494,
      "Ãģ": 495,
      "Ãį": 496,
      "ÂŁÂŀÂ": 497,
      "ÂĿÂŀÂŀÂŀÂŀÂŀÂĿ": 498,
      "ÂĿÂŀÂŀÂŀÂŀÂŀÂŁ": 499,
      "ÂŁÂĿÂŁ": 500,
      "Ãĥ": 501,
      "ÂŀÂķ": 502,
      "ÂĽÂľ": 503,
      "ÂŀÂŀÂŁÂŀÂŀÂŀÂŁ": 504,
      "ÂŀÂĵ": 505,
      "Â¡Â¡": 506,
      "ÂĿÂŀÂ¡": 507,
      "ÂŁÂŀÂŀÂŀÂŀÂŀÂĿ": 508,
      "ÃĦ": 509,
      "ÂŀÂĪ": 510,
      "ÂŀÂŀÂŀÂŀÂŀÂŀÂŀÂŀÂŀÂŀÂŀÂŀÂŀÂŀÂŀÂŀÂŀÂŀÂŀÂŀ": 511,
      "ÂŀÂ´": 512,
      "ÂŁÂŀÂŀÂŀÂŀÂŀÂŁ": 513,
      "ÂŀÂŀÂĿÂŀÂŀÂŀÂĿ": 514,
      "ÂŁÂŀÂĽ": 515,
      "ÂŀÂ§": 516,
      "ÂĵÂĳ": 517,
      "Ãħ": 518,
      "ÂĿÂŀÂĽ": 519,
      "ÂĽÂĽ": 520,
      "ÂľÂŀÂŀÂŁ": 521,
      "ÃĿ": 522,
      "ÂľÂŀÂľ": 523,
      "Ãı": 524,
      "ÂľÂļ": 525,
      "ÂĽÂ¡": 526,
      "ÂŀÂĶ": 527,
      "ÂľÂŀÂŀÂĿ": 528,
      "Ãĩ": 529,
      "ÂŁÂŀÂ¡": 530,
      "ÂĿÂŀÂŀÂŀ": 531,
      "ÂľÂ¢": 532,
      "ÂŁÂŀÂŀÂľ": 533,
      "ÃĪ": 534,
      "ÂŀÂĿÂŀÂŀ": 535,
      "ÂŁÂĻ": 536,
      "ÂĿÂŀÂŀÂľ": 537,
      "ÂŀÂĲ": 538,
      "ÂĿÂŀÂŀÂŀÂŀÂŀÂŀÂŀÂŀ": 539,
      "ÂŀÂŁÂŀÂŀ": 540,
      "ÂŀÂŀÂŀÂĿÂŀÂŀ": 541,
      "ÂŁÂĿÂŀÂŀÂŀÂŀ": 542,
      "ÂĿÂ£": 543,
      "ÂŀÂŀÂŀÂŀÂŁÂŁ": 544,
      "ÂŀÂ¨": 545,
      "ÂŀÂŀÂŀÂŁÂŀÂŀ": 546,
      "ÂĿÂĻ": 547,
      "ÂŁÂŀÂŀÂŀ": 548,
      "Ã½": 549,
      "Â¡ÂĽ": 550,
      "ÂŀÂŀÂŀÂŁÂŀÂĿ": 551,
      "ÂŀÂŀÂŀÂĿÂŀÂŁ": 552,
      "ÂŀÂı": 553,
      "ÂŁÂ£": 554,
      "Ã²": 555,
      "ÂŀÂŀÂŀÂŀÂĿÂĿ": 556,
      "ÂŀÂŀÂĿÂŀÂŀ": 557,
      "ÂŀÂŀÂŀÂĿÂŀÂŀÂŁ": 558,
      "ÂŀÂŀÂĿÂŀÂŀÂŁ": 559,
      "Ãĭ": 560,
      "ÂŀÂŀÂĻ": 561,
      "ÂŀÂ¬": 562,
      "Äľ": 563,
      "ÂŀÂİ": 564,
      "ÂŀÂŀÂ£": 565,
      "ÂŀÂĿÂŀÂŀÂŁ": 566,
      "Â¢Â¡": 567,
      "ÂŀÂŁÂľ": 568,
      "ÂŀÂŁÂŀÂŀÂĿ": 569,
      "ÂŀÂŁÂŀ": 570,
      "ÂŀÂĿÂľ": 571,
      "ÄĴ": 572,
      "ÂŁÂŀÂŀÂŀÂŀÂŀÂŀÂŀÂŀ": 573,
      "ÂŀÂ®": 574,
      "ÃĮ": 575,
      "Ä¦": 576,
      "ÂŀÂĳ": 577,
      "ÂŀÂŀÂŀÂŀÂŁÂŀÂĿ": 578,
      "ÂŀÂŀÂŀÂŀÂĿÂŀÂŁ": 579,
      "Â¡Âľ": 580,
      "ÂŀÂĿÂŀÂŀÂĿ": 581,
      "ÂĿÂŀÂŀÂŀÂŀÂŀÂŀÂŁ": 582,
      "ÂŀÂŁÂŀÂŀÂŁ": 583,
      "ÂĽÂŀ": 584,
      "ÂŀÂĿÂŀ": 585,
      "ÂŁÂŀÂŀÂŀÂŀÂŀÂŀÂŁ": 586,
      "Ãİ": 587,
      "ÂŀÂ©": 588,
      "~Ā": 589,
      "ÂŀÂŀÂĿÂŀÂŀÂĿ": 590,
      "ÂļÂ¡": 591,
      "ÂŀÂŀÂŀÂ¡": 592,
      "ÂŀÂŀÂŀÂŁÂŀÂŀÂŁ": 593,
      "ÂŀÂŀÂŀÂŀÂŁÂŀÂŁ": 594,
      "ÂŀÂŀÂŀÂĽ": 595,
      "ÂŀÂ«": 596,
      "ÂŀÂŀÂŀÂŀÂŀÂŀÂŀÂŀÂŀÂŀÂŀÂŀÂŀÂŁ": 597,
      "ÂŀÂŀÂŀÂŀÂŀÂŀÂŀÂŀÂŀÂŀÂŀÂŀÂŀÂŀÂŀÂŀÂŀÂŀÂŀÂŀÂŀÂŀÂŀÂŀ": 598,
      "ÂŁÂĿÂŀÂŁ": 599,
      "ÃĲ": 600,
      "ÂŀÂĴ": 601,
      "Â¡Â¢": 602,
      "ÂļÂĽ": 603,
      "ÂŀÂŀÂŀÂŀÂĿÂŁ": 604,
      "ÂŀÂŃ": 605,
      "ÂŀÂŀÂŀÂŀÂŀÂŀÂŀÂŀÂŀÂŀÂŀÂŀÂŀ": 606,
      "ÂŁÂĿÂŀÂĿ": 607,
      "Ãĳ": 608,
      "ÂŀÂŀÂĿÂĿÂĿ": 609,
      "ÂŀÂŀÂŀÂŀÂŀÂŀÂŀÂŀÂŀÂŀÂŀÂŀÂŀÂĿ": 610,
      "ÂļÂľ": 611,
      "ÃĴ": 612,
      "ÂŀÂŀÂŁÂŁÂŁ": 613,
      "ÂĽÂ¢": 614,
      "ÂŀÂŀÂŀÂŁÂŀÂŀÂĿ": 615,
      "ÂŀÂŀÂŀÂŀÂĿÂŀÂĿ": 616,
      "ÂŁÂĺ": 617,
      "ÂĿÂĺ": 618,
      "ÂĽÂŀÂŁ": 619,
      "ÂĽÂļ": 620,
      "Â¡Âŀ": 621,
      "ÂĿÂŀÂŀÂŀÂŀÂŀÂŀÂĿ": 622,
      "ÂĿÂ¤": 623,
      "ÃĶ": 624,
      "ÂŀÂŀÂŁÂŀÂŀÂŁ": 625,
      "Ãĵ": 626,
      "ÂŁÂ¤": 627,
      "ÂŀÂŀÂŀÂŀÂŀÂŀÂľ": 628,
      "ÂŀÂŀÂŀÂŀÂŀÂŀÂŀÂŁ": 629,
      "ÂŀÂŀÂŀÂŀÂŀÂŀÂŁÂŀÂŀ": 630,
      "ÂŀÂŀÂŀÂŀÂŀÂŀÂĿÂŀÂŀ": 631,
      "Â¡ÂŀÂĿ": 632,
      "ÂŀÂŀÂŀÂŀÂľ": 633,
      "ÂŁÂŀÂŀÂŀÂŀÂŀÂŀÂĿ": 634,
      "ÂŀÂŀÂŀÂŀÂŀÂŀÂŀÂĿ": 635,
      "ÂŀÂŀÂŁÂŀÂŀÂĿ": 636,
      "ÂľÂĻ": 637,
      "ÂĿÂŀÂ¢": 638,
      "ÂľÂ£": 639,
      "ÂŀÂĦ": 640,
      "Â¡Âļ": 641,
      "Ãķ": 642,
      "ÄŃ": 643,
      "Â¡ÂŀÂŁ": 644,
      "ÂŁÂŀÂļ": 645,
      "ÂŀÂŀÂŀÂĿÂŀÂŀÂĿ": 646,
      "Â¢Â¢": 647,
      "ÂŀÂŀÂ¤": 648,
      "ÂŁÂŁÂŀÂĿ": 649,
      "ÂĿÂŀÂļ": 650,
      "Ãĸ": 651,
      "ÂŀÂŀÂŀÂŀÂŀÂŀÂŀÂŀÂŀÂŀÂŀÂŀÂŀÂŀÂŀÂŀÂŀ": 652,
      "ÂľÂŀÂ¡": 653,
      "ÂŀÂŀÂĺ": 654,
      "ÂĽÂŀÂĿ": 655,
      "ÂŁÂŀÂŀÂŀÂŀÂŀ": 656,
      "ÂŀÂŀÂŀÂŁÂŀÂŁ": 657,
      "Â¡ÂŀÂľ": 658,
      "Ãĺ": 659,
      "ÂŀÂ¸": 660,
      "ÂĿÂŁÂŀÂŁ": 661,
      "ÂĿÂŀÂŀÂŀÂŀÂŀ": 662,
      "ÃĹ": 663,
      "ÂŁÂŀÂ¢": 664,
      "ÂŀÂŀÂŀÂĿÂŀÂĿ": 665,
      "ÂĿÂĿÂŀÂŁ": 666,
      "ÂľÂŁÂŁ": 667,
      "ÂĽÂŀÂŀ": 668,
      "Â¡ÂŀÂŀ": 669,
      "ÂļÂ¢": 670,
      "ÂŀÂŀÂŀÂŀÂŀÂŀÂŀÂŀÂŀÂŀÂŀÂŀÂŀÂŀÂŀÂŀÂŀÂŀÂŀÂŀÂŀÂŀÂŀ": 671,
      "ÃĻ": 672,
      "ÂŀÂĮ": 673,
      "Â¡Â£": 674,
      "ÂļÂŀ": 675,
      "ÂŀÂŀÂŀÂŀÂŀÂŀÂŀÂŀÂŀÂŁ": 676,
      "ÂĿÂŁÂŀÂĿ": 677,
      "ÂĽÂĿ": 678,
      "ÂŀÂľÂľ": 679,
      "ÂĽÂĻ": 680,
      "Ãļ": 681,
      "ÂŁÂŁÂŀÂŁ": 682,
      "ÂĽÂ£": 683,
      "ÂľÂŀÂĽ": 684,
      "ÃĽ": 685,
      "Â¡ÂĻ": 686,
      "ÂŁÂĹ": 687,
      "ÂŀÂŀÂŀÂŀÂŀÂŀÂŀÂŀÂŀÂĿ": 688,
      "Ãľ": 689,
      "ÂļÂļ": 690,
      "ÂĿÂĿÂŀÂĿ": 691,
      "ÂŀÂŀÂŀÂŀÂŀÂŀÂŀÂŀÂŀÂŀÂŀ": 692,
      "ÂŀÂĬ": 693,
      "ÂĿÂĹ": 694,
      "ÂĽÂŀÂľ": 695,
      "ÂŁÂŁÂľ": 696,
      "Â¢Âľ": 697,
      "ÂŀÂŀÂŀÂŀÂŀÂŀÂŀÂŀÂŀÂŀÂŀÂŀÂŀÂŀÂŀÂŀÂŀÂŀÂŀÂŀÂŀÂŀÂŀÂŀÂŀÂŀÂŀÂŀ": 698,
      "ÂŁÂ¥": 699,
      "ÂĿÂĿÂŀ": 700,
      "ÂŀÂŀÂŀÂŀÂĿ": 701,
      "ÂĿÂŁÂŀ": 702,
      "ÂŀÂŀÂŁÂŀ": 703,
      "ÂĿÂ¥": 704,
      "ÂŀÂ°": 705,
      "ÂŀÂĿÂŀÂľ": 706,
      "ÂŀÂŀÂŀÂŀÂŀÂľ": 707,
      "ÂłÂł": 708,
      "ÂŀÂŀÂĿÂŀ": 709,
      "ÂŁÂĿÂľ": 710,
      "ÂĽÂŁ": 711,
      "ÂļÂĻ": 712,
      "Ãŀ": 713,
      "ÂŀÂŀÂĿÂŀÂľ": 714,
      "ÂĿÂŁÂŀÂŀ": 715,
      "ÃŁ": 716,
      "}Ā": 717,
      "Â¢Âŀ": 718,
      "Â£Â¡": 719,
      "Ã¡": 720,
      "Ãł": 721,
      "ÂŁÂĿÂŀ": 722,
      "ÂŁÂŁÂŀ": 723,
      "Â¢ÂĽ": 724,
      "ÂŀÂŀÂŀÂŀÂŁÂŀÂŀÂŀÂŀ": 725,
      "ÂľÂĺ": 726,
      "Ã¢": 727,
      "Â¢Â£": 728,
      "ÂŀÂŀÂĹ": 729,
      "ÂĿÂŀÂŀÂŀÂľ": 730,
      "ÂĿÂŀÂŀÂŀÂŀÂŀÂŀÂŀÂŀÂŀÂŀÂŀÂŀ": 731,
      "ÂŁÂŀÂŀÂŀÂŀÂŀÂŀÂŀÂŀÂŀÂŀÂŀÂŀ": 732,
      "ÂŀÂŁÂŀÂľ": 733,
      "ÂŀÂŀÂĿÂŁÂŁ": 734,
      "ÂŁÂĿÂŀÂŀ": 735,
      "ÂŀÂŀÂŁÂŀÂŀ": 736,
      "ÂŀÂŀÂĿÂľ": 737,
      "ÂĽÂĺ": 738,
      "ÂŀÂŀÂ¥": 739,
      "Â¢Âļ": 740,
      "ÂŀÂŀÂŀÂŀÂĿÂŀÂŀÂŀÂŀ": 741,
      "Ã§": 742,
      "ÂĿÂĿÂŀÂŀ": 743,
      "Â¡ÂŁ": 744,
      "Â¢ÂĻ": 745,
      "ÂľÂ¤": 746,
      "Âŀ~": 747,
      "ÂŀÂŀÂŁÂĿÂĿ": 748,
      "ÂļÂ£": 749,
      "ÂŀÂŀÂŀÂŀÂŀÂŀÂŁÂŀÂŀÂŀÂŀÂŀÂŀÂŁ": 750,
      "Ã¥": 751,
      "Ã¤": 752,
      "ÂŀÂŁÂŁÂŁ": 753,
      "Ã¦": 754,
      "Ã¨": 755,
      "ÂŀÂŀÂŁÂľ": 756,
      "ÂŀÂŀÂĿÂŀÂŀÂŀÂŁ": 757,
      "Â¡ÂĿ": 758,
      "ÂŀÂŀÂŁÂŀÂŀÂŀÂĿ": 759,
      "ÂŀÂľÂŀÂĿ": 760,
      "|Ā": 761,
      "ÂŀÂ¶": 762,
      "ÂĻÂľ": 763,
      "ÂŀÂŀÂŁÂĿÂŁ": 764,
      "Â¡Â¤": 765,
      "ÂĽÂŀÂ¡": 766,
      "ÂŀÂŀÂŁÂŀÂŀÂŀ": 767,
      "ÂĿÂŀÂĿÂŀÂĿ": 768,
      "Â¡Âĺ": 769,
      "Ã©": 770,
      "Ä±": 771,
      "ÂĢĀ": 772,
      "ÂĽÂ¤": 773,
      "ÂĿÂ¦": 774,
      "Ã«": 775,
      "ÂŁÂĸ": 776,
      "Â£Â£": 777,
      "ÂĿÂĸ": 778,
      "ÂŀÂį": 779,
      "Ãª": 780,
      "ÂľÂĿÂĿ": 781,
      "Â¡ÂŀÂĽ": 782,
      "ÂŁÂŁÂŀÂŀÂŀÂŀ": 783,
      "ÂŀÂĨ": 784,
      "ÂŀÂľÂŀÂŁ": 785,
      "ÂŀÂĩ": 786,
      "Â£Â¢": 787,
      "ÂľÂŀÂŀÂŀÂĿ": 788,
      "Ã¬": 789,
      "ÂŁÂŁÂŀÂŀ": 790,
      "ÂŁÂ¦": 791,
      "Ä°": 792,
      "ÃŃ": 793,
      "ÂļÂĺ": 794,
      "Ã®": 795,
      "ÂŁÂŀÂŀÂŀÂŀÂŀÂŀÂŀÂŀÂŀÂŀÂŀÂŀÂŀÂŀÂŀÂŀ": 796,
      "Ä¯": 797,
      "ÂŀÂŀÂŀÂŀÂŀÂŀÂĿÂŀÂŀÂŀÂŀÂŀÂŀÂĿ": 798,
      "ÂŀÂŀÂĿÂĿÂŁ": 799,
      "ÂľÂŀÂŀÂŀÂŁ": 800,
      "ÂŀÂľÂŀ": 801,
      "ĀÂ¤": 802,
      "ÂĽÂŀÂŀÂŁ": 803,
      "ÂŀÂŀÂŀÂŀÂŀÂŀÂŀÂŀÂŀÂŀÂŁ": 804,
      "ÂĻÂŀ": 805,
      "ÂŀÂŀÂŀÂŀÂŀÂŀÂŀÂŀÂŀÂŀÂŀÂŁ": 806,
      "Ä®": 807,
      "ÂĽÂŀÂĽ": 808,
      "ÂĻÂ¡": 809,
      "Ã¯": 810,
      "Ä²": 811,
      "ÂŁÂŀÂŁÂŀÂŁ": 812,
      "Â¢ÂŀÂĿ": 813,
      "Â¢Â¤": 814,
      "ÂĻÂļ": 815,
      "ÂŀÂŀÂľÂŀÂĿ": 816,
      "zÄ¼": 817,
      "Ã°": 818,
      "ÂľÂĿÂŁ": 819,
      "ÂŀÂŁÂ¡": 820,
      "ÂŀÂŀÂŀÂŀÂĿÂŀÂ": 821,
      "ÂĿÂŀÂŀÂŀÂŀÂŀÂŀÂŀÂŀÂŀÂŀÂŀÂŀÂŀÂŀÂŀÂŀ": 822,
      "ÂľÂŀÂŀÂŀÂŀ": 823,
      "ÂĽÂŀÂŀÂĿ": 824,
      "Ã³": 825,
      "Âĳġ": 826,
      "ÂľÂĹ": 827,
      "ÂĿÂĿÂŀÂŀÂŀÂŀ": 828,
      "ĀÂ¥": 829,
      "ÂŁÂŀÂĻ": 830,
      "Ã±": 831,
      "ĀÂ£": 832,
      "Â¢Âĺ": 833,
      "ÂŀÂŁÂĿÂŁ": 834,
      "ÂĻÂ£": 835,
      "ÂĿÂŀÂ£": 836,
      "ÂŀÂŁÂĿÂĿ": 837,
      "ÂŀÂŀÂĿÂŀÂŀÂŀ": 838,
      "ÂŀÂŁÂĽ": 839,
      "ÂĻÂ¢": 840,
      "ÂľÂ¥": 841,
      "ÂĻÂĽ": 842,
      "ÂŀÂŀÂŀÂŀÂŀÂŀÂĿÂŀÂŀÂŀÂŀÂŀÂŀÂŁ": 843,
      "Â¡ÂŀÂŀÂŁ": 844,
      "Ã´": 845,
      "Ãµ": 846,
      "ÂĿÂŀÂĻ": 847,
      "ÂŁÂŀÂŀÂŀÂľ": 848,
      "ÂŀÂŀÂŀÂŀÂŀÂŀÂŀÂŀÂŀÂŀÂĿ": 849,
      "ÂļÂ¤": 850,
      "Ã¶": 851,
      "ÂŀÂŀÂĸ": 852,
      "ÂŀÂŀÂŀÂŀÂŀÂŀÂŀÂŀÂŀÂŀÂŀÂĿ": 853,
      "ÂŀÂŀÂŀÂŀÂŀÂŀÂ´": 854,
      "ÂľÂŀÂŀÂľ": 855,
      "ÂŀÂĿÂĿÂĿ": 856,
      "Â¡ÂŀÂŀÂĿ": 857,
      "ÂĿÂŁÂŀÂŀÂŀÂŀ": 858,
      "ÂŀÂŁÂŁ": 859,
      "ÂŀÂŀÂŀÂŁÂŁÂŀÂĿ": 860,
      "Ä³": 861,
      "ÂŀÂ¯": 862,
      "Â¡ÂŀÂ¡": 863,
      "ÂŀÂŀÂŀÂĿÂĿÂŀÂŁ": 864,
      "ĀÂ¦": 865,
      "ÂľÂŀÂ¢": 866,
      "ÂŀÂľÂŀÂŀ": 867,
      "Ã¸": 868,
      "Â£Âŀ": 869,
      "ÂŀÂĿÂĽ": 870,
      "ÂŀÂŁÂĿ": 871,
      "ÂŁÂŀÂ£": 872,
      "Ä´": 873,
      "ÂĻÂĻ": 874,
      "ÂļÂĿ": 875,
      "xÄ¼": 876,
      "Ã¹": 877,
      "ÂŀÂŀÂ¦": 878,
      "ÂŀÂŀÂĿÂŀÂŀÂŀÂ": 879,
      "ĀÂ¢": 880,
      "ĀÂ§": 881,
      "Ãº": 882,
      "Ã»": 883,
      "ÂŀÂŀÂŀÂŀÂŀÂŀÂĿÂŀÂŀÂŀ": 884,
      "Ã¼": 885,
      "ÂŁÂķ": 886,
      "ÂŀÂĿÂŁÂŁ": 887,
      "Ã·": 888,
      "ÂŀÂĿÂ¡": 889,
      "ÂĽÂĹ": 890,
      "ÂŀÂŀÂŀÂ¢": 891,
      "yÄ¼": 892,
      "Äª": 893,
      "ÂŀÂŀÂŁÂŀÂľ": 894,
      "ÂľÂŀÂļ": 895,
      "ÄĤ": 896,
      "ÂŀÂŀÂŀÂŀÂŀÂŀÂŀÂŀÂŀÂŀÂŀÂŀÂŀÂŀÂŀÂŀÂŀÂŀÂŀÂŀÂŀÂŀÂŀÂŀÂŀÂŀÂŀÂŀÂŀÂŀ": 897,
      "Ä«": 898,
      "ĀÂ¨": 899,
      "ÂĺÂŀ": 900,
      "ÂŀÂĿÂĿ": 901,
      "Â¢ÂŀÂľ": 902,
      "ÂŀÂ»": 903,
      "Ä¬": 904,
      "Ã¿": 905,
      "ÂľÂĿÂŀÂŁ": 906,
      "ÄĢ": 907,
      "ÂĳġĀ": 908,
      "ĀÂ©": 909,
      "ÂŀÂŀÂŀÂĿÂŁÂŁ": 910,
      "Äī": 911,
      "Äģ": 912,
      "ÂŀÂŀÂŀÂŀÂŀÂŀÂŁÂŀÂŀÂŀ": 913,
      "ÂŀÂĭ": 914,
      "Â£Âļ": 915,
      "ÂŀÂ·": 916,
      "Ã¾": 917,
      "ÂĵÂĴ": 918,
      "ÂŀÂŀÂŀÂŀÂĿÂŀ": 919,
      "Äħ": 920,
      "Ä»": 921,
      "ÂŀÂŀÂŀÂŀÂŀÂŀÂŀÂŀÂŀÂŀÂŀÂŀÂŀÂŀÂŀÂŀÂŀÂŀ": 922,
      "ÂŀÂŀÂŀÂļ": 923,
      "Â¡ÂĹ": 924,
      "ÂĻÂ¤": 925,
      "Äĥ": 926,
      "Ä©": 927,
      "Ä¼Âª": 928,
      "ÂĻÂĺ": 929,
      "Â£ÂĽ": 930,
      "ÄĪ": 931,
      "Äį": 932,
      "ÂĿÂĵ": 933,
      "ÂŁÂĵ": 934,
      "Äĩ": 935,
      "ÂļÂŀÂŁ": 936,
      "ÂļÂŀÂľ": 937,
      "{Ā": 938,
      "ÂĿÂķ": 939,
      "ÄĬ": 940,
      "ÂĿÂŀÂŀÂŀÂŀÂŀÂŀÂŀÂŀÂŀ": 941,
      "ÂŁÂ§": 942,
      "Äİ": 943,
      "Â¡Â¥": 944,
      "Ä§": 945,
      "ÂŀÂŀÂŀÂŀÂŁÂŀ": 946,
      "ÂŀÂŀÂŀÂĿÂĿÂŁ": 947,
      "ÂŀÂŀÂŀÂĿÂŀ": 948,
      "ÂĿÂ§": 949,
      "Â¢ÂŀÂŁ": 950,
      "ÂļÂŀÂŀ": 951,
      "Â¢ÂŀÂŀ": 952,
      "wÄ¼": 953,
      "ÄĦ": 954,
      "ÄĨ": 955,
      "Â£Â¤": 956,
      "ÂĪÂĺ": 957,
      "ÂŀÂĿÂĿÂŁ": 958,
      "ÂŀÂŀÂŁÂĿÂŀÂŀ": 959,
      "ÂļÂ¥": 960,
      "Ä¶": 961,
      "Â£Âĺ": 962,
      "Â£Âľ": 963,
      "Ä¨": 964,
      "Ä¡": 965,
      "ÂĽÂ¥": 966,
      "ÂŀÂŀÂĿÂĿÂŀÂŁ": 967,
      "ÂļÂĹ": 968,
      "ÂļÂŁ": 969,
      "ÂŀÂĿÂŁ": 970,
      "Äĭ": 971,
      "Ä¤": 972,
      "ÂŀÂŀÂŀÂŁÂŁÂŁ": 973,
      "ÄĮ": 974,
      "Äı": 975,
      "ÂŁÂĿÂŀÂľ": 976,
      "Â¢Â¥": 977,
      "ÄĲ": 978,
      "Äµ": 979,
      "Äķ": 980,
      "ÂŀÂŀÂŁÂŀÂŀÂŀÂ": 981,
      "tÄ¼": 982,
      "ÂŀÂŀÂĿÂŁÂŀÂŀ": 983,
      "vÄ¼": 984,
      "ÂľÂĸ": 985,
      "ÄĹ": 986,
      "Äĳ": 987,
      "Äĸ": 988,
      "Äļ": 989,
      "ÂŁÂŀÂŀÂĿÂŀÂŀ": 990,
      "Ä¥": 991,
      "Â¢ÂŀÂĽ": 992,
      "ÂļÂŀÂĿ": 993,
      "ÂŀÂŀÂŀÂĿÂĿÂĿ": 994,
      "ÂŀÂŀÂŀÂŀÂŁÂĿ": 995,
      "ÄĽ": 996,
      "ÂĺÂĽ": 997,
      "ÄĿ": 998,
      "Äŀ": 999,
      "ÂŁÂŀÂŀÂŀÂŀÂŀÂŀÂŀÂŀÂŀ": 1000,
      "ÂľÂĿÂľ": 1001,
      "Äĵ": 1002,
      "ÂŀÂŀÂŁÂŁÂŀÂĿ": 1003,
      "ÂŀÂŀÂŀÂŁÂĿÂĿ": 1004,
      "Â¢ÂĹ": 1005,
      "Â¡ÂŀÂļ": 1006,
      "ÂĺÂĺ": 1007,
      "Ä·": 1008,
      "Ä£": 1009,
      "uÄ¼": 1010,
      "Äĺ": 1011,
      "Äł": 1012,
      "ÄĶ": 1013,
      "ÄĻ": 1014,
      "ĀÂ¡": 1015,
      "ÂĿÂŀÂŀÂ¡": 1016,
      "Äº": 1017,
      "ÂŁÂŁÂŀÂľ": 1018,
      "Â£ÂĻ": 1019,
      "ÂĿÂŁÂľ": 1020,
      "ÂĿÂŀÂŀÂŁÂŀÂŀ": 1021,
      "ĀÂĺ": 1022,
      "Â¤Â¡": 1023
    },
    "merges": [
      "Â ŀ",
      "Âŀ Âŀ",
      "Â Ł",
      "Â Ŀ",
      "ÂŀÂŀ ÂŀÂŀ",
      "Âŀ Â",
      "Â ł",
      "Âŀ ÂŁ",
      "Âŀ ÂĿ",
      "Â ľ",
      "ÂŀÂŀÂŀÂŀ ÂŀÂŀÂŀÂŀ",
      "ÂŀÂŀ ÂŁ",
      "ÂŀÂŀ ÂĿ",
      "Â ¡",
      "Â Ľ",
      "Â ļ",
      "Â ¢",
      "ÂŀÂ ľ",
      "Â Ļ",
      "ÂŀÂŀ ÂŀÂŁ",
      "Â £",
      "ÂŀÂŀ ÂŀÂĿ",
      "ÂŁ ÂŁ",
      "Ä ¼",
      "ÂĿ ÂĿ",
      "Â ĺ",
      "Â ¤",
      "Â ĵ",
      "Â Ĺ",
      "ÂĿ ÂŁ",
      "Â ¥",
      "ÂŀÂ Ľ",
      "ÂŀÂ ¡",
      "ÂŀÂŀ Âŀ",
      "ÂŀÂŀÂŀÂŀÂŀÂŀÂŀÂŀ ÂŀÂŀÂŀÂŀÂŀÂŀÂŀÂŀ",
      "Â ĸ",
      "Â ¦",
      "ÂŀÂŀ Âľ",
      "ÂĿ ÂŀÂŀÂŀÂŀ",
      "Â ĳ",
      "Â ķ",
      "ÂŁ ÂŀÂŀÂŀÂŀ",
      "ÂĿ ÂŀÂŁ",
      "Â Ķ",
      "Â §",
      "ÂŁ ÂŀÂĿ",
      "ÂĿ ÂŀÂĿ",
      "Â Ĵ",
      "Â ¨",
      "ÂŁ ÂŀÂŁ",
      "ÂŁ ÂĿ",
      "ÂŀÂ ļ",
      "ÂŀÂ ¢",
      "Â ©",
      "Â ª",
      "Â Ĳ",
      "Â Ī",
      "Â ı",
      "ÂŀÂŀÂŀÂŀ ÂŀÂŀÂŁ",
      "ÂŀÂŀÂŀÂŀ ÂŀÂŀÂĿ",
      "Â «",
      "Â ¬",
      "Â İ",
      "ÂĿ ÂŀÂŀ",
      "ÂĿ Âľ",
      "ÂŀÂŀÂŀÂŀÂŀÂŀÂŀÂŀ ÂŀÂŀÂŀÂŀ",
      "ÂŁ Âľ",
      "ÂŁ ÂŀÂŀ",
      "Â Ń",
      "ÂŀÂŀÂŀÂŀ ÂŀÂŀ",
      "Â ®",
      "Â Į",
      "Â į",
      "ÂŀÂ Ļ",
      "ÂŀÂ £",
      "Â Ĭ",
      "Â ´",
      "ÂŁ ÂŀÂŀÂĿ",
      "ÂĿ ÂŀÂŀÂŁ",
      "ÂĿ Âŀ",
      "ÂŀÂŀÂŀÂŀ ÂŀÂŁ",
      "Â ĭ",
      "ÂŀÂŀÂŀÂŀ ÂŀÂĿ",
      "ÂĿ ÂŀÂŀÂĿ",
      "ÂŁ ÂŀÂŀÂŁ",
      "Â ²",
      "Â °",
      "Â ī",
      "Â ĩ",
      "Â ¯",
      "Â Ħ",
      "Â ħ",
      "Â ¾",
      "Â Ĩ",
      "ÂŁ Âŀ",
      "Â ģ",
      "Â ±",
      "ÂŀÂ ĺ",
      "ÂŁ ÂŀÂľ",
      "ÂŀÂŀ ÂĽ",
      "ÂŀÂŀ Â¡",
      "ġ Ā",
      "Âľ Âľ",
      "Â Ģ",
      "ÂŀÂ ¤",
      "Â ³",
      "Â ĥ",
      "Â Ĥ",
      "Â µ",
      "ÂŀÂŀ ÂŀÂľ",
      "ÂĿ ÂŀÂľ",
      "ÂŀÂŁ ÂŀÂŀÂŀÂŀ",
      "ÂĿ ÂĽ",
      "ÂŁ ÂĽ",
      "Â ¸",
      "ÂŀÂ Ĺ",
      "ÂĿ Â¡",
      "Â ¶",
      "ÂŁ Â¡",
      "ÂŀÂŀÂŀÂŀÂŀÂŀÂŀÂŀ Âŀ",
      "ÂŀÂ ¥",
      "ÂŀÂĿ ÂŀÂŀÂŀÂŀ",
      "Ã Ĥ",
      "ÂŀÂŁ ÂŀÂŁ",
      "Â ·",
      "ÂĿ ÂŀÂŀÂŀÂĿ",
      "ÂŀÂĿ ÂŀÂĿ",
      "ÂŁ ÂŀÂŀÂŀÂŁ",
      "Â »",
      "ÂŀÂ ĸ",
      "Ã ī",
      "ÂĿ ÂŀÂŀÂŀÂŁ",
      "ÂĿ ÂŁÂŁ",
      "Â ¹",
      "ÂŁ ÂŀÂŀÂŀÂĿ",
      "ÂŀÂĿ ÂŀÂŁ",
      "ÂŁ ÂĿÂĿ",
      "Âľ ÂŀÂŁ",
      "ÂŀÂ ¦",
      "Â º",
      "ÂĿ ÂŀÂ",
      "ÂŀÂŀÂŁ ÂŀÂŁ",
      "Â ¼",
      "Âľ ÂŁ",
      "Âľ ÂŀÂĿ",
      "Âľ ÂĽ",
      "ÂŀÂŀÂŀÂŀ ÂŁ",
      "Â ½",
      "ÂŀÂŀÂĿ ÂŀÂŁ",
      "Âľ Â¡",
      "ÂŀÂŀ ÂŀÂ",
      "Ã Ĩ",
      "ÂŀÂŀÂĿ ÂŀÂĿ",
      "ÂŀÂŀ Âļ",
      "Âľ ÂĿ",
      "Ã £",
      "ÂŀÂŀ Â¢",
      "Âľ Âŀ",
      "ÂŀÂŀÂŀÂŀÂŀÂŀÂŀÂŀ ÂŀÂŀ",
      "ÂŀÂŀÂŀÂŀ Âŀ",
      "Â ¿",
      "Ã Ĭ",
      "Ã Ģ",
      "ÂŁ Âļ",
      "ÂĿ Âļ",
      "ÂŁ Â¢",
      "Âľ ÂŀÂŀ",
      "ÂĿ Â¢",
      "ÂŀÂŀÂŁ ÂŀÂĿ",
      "ÂŀÂŀÂŀÂŀÂŀÂŀÂŀÂŀÂŀÂŀÂŀÂŀÂŀÂŀÂŀÂŀ ÂŀÂŀÂŀÂŀÂŀÂŀÂŀÂŀÂŀÂŀÂŀÂŀÂŀÂŀÂŀÂŀ",
      "ÂŀÂŁ ÂŀÂĿ",
      "Ã ģ",
      "Ã į",
      "ÂŁ ÂŀÂ",
      "ÂĿÂŀÂŀÂŀÂŀ ÂŀÂĿ",
      "ÂĿÂŀÂŀÂŀÂŀ ÂŀÂŁ",
      "ÂŁ ÂĿÂŁ",
      "Ã ĥ",
      "ÂŀÂ ķ",
      "ÂĽ Âľ",
      "ÂŀÂŀÂŁ ÂŀÂŀÂŀÂŁ",
      "ÂŀÂ ĵ",
      "Â¡ Â¡",
      "ÂĿ ÂŀÂ¡",
      "ÂŁÂŀÂŀÂŀÂŀ ÂŀÂĿ",
      "Ã Ħ",
      "ÂŀÂ Ī",
      "ÂŀÂŀÂŀÂŀÂŀÂŀÂŀÂŀÂŀÂŀÂŀÂŀÂŀÂŀÂŀÂŀ ÂŀÂŀÂŀÂŀ",
      "ÂŀÂ ´",
      "ÂŁÂŀÂŀÂŀÂŀ ÂŀÂŁ",
      "ÂŀÂŀÂĿ ÂŀÂŀÂŀÂĿ",
      "ÂŁ ÂŀÂĽ",
      "ÂŀÂ §",
      "Âĵ Âĳ",
      "Ã ħ",
      "ÂĿ ÂŀÂĽ",
      "ÂĽ ÂĽ",
      "Âľ ÂŀÂŀÂŁ",
      "Ã Ŀ",
      "Âľ ÂŀÂľ",
      "Ã ı",
      "Âľ Âļ",
      "ÂĽ Â¡",
      "ÂŀÂ Ķ",
      "Âľ ÂŀÂŀÂĿ",
      "Ã ĩ",
      "ÂŁ ÂŀÂ¡",
      "ÂĿ ÂŀÂŀÂŀ",
      "Âľ Â¢",
      "ÂŁ ÂŀÂŀÂľ",
      "Ã Ī",
      "ÂŀÂĿ ÂŀÂŀ",
      "ÂŁ ÂĻ",
      "ÂĿ ÂŀÂŀÂľ",
      "ÂŀÂ Ĳ",
      "ÂĿ ÂŀÂŀÂŀÂŀÂŀÂŀÂŀÂŀ",
      "ÂŀÂŁ ÂŀÂŀ",
      "ÂŀÂŀÂŀÂĿ ÂŀÂŀ",
      "ÂŁ ÂĿÂŀÂŀÂŀÂŀ",
      "ÂĿ Â£",
      "ÂŀÂŀÂŀÂŀ ÂŁÂŁ",
      "ÂŀÂ ¨",
      "ÂŀÂŀÂŀÂŁ ÂŀÂŀ",
      "ÂĿ ÂĻ",
      "ÂŁ ÂŀÂŀÂŀ",
      "Ã ½",
      "Â¡ ÂĽ",
      "ÂŀÂŀÂŀÂŁ ÂŀÂĿ",
      "ÂŀÂŀÂŀÂĿ ÂŀÂŁ",
      "ÂŀÂ ı",
      "ÂŁ Â£",
      "Ã ²",
      "ÂŀÂŀÂŀÂŀ ÂĿÂĿ",
      "ÂŀÂŀÂĿ ÂŀÂŀ",
      "ÂŀÂŀÂŀÂĿ ÂŀÂŀÂŁ",
      "ÂŀÂŀÂĿ ÂŀÂŀÂŁ",
      "Ã ĭ",
      "ÂŀÂŀ ÂĻ",
      "ÂŀÂ ¬",
      "Ä ľ",
      "ÂŀÂ İ",
      "ÂŀÂŀ Â£",
      "ÂŀÂĿ ÂŀÂŀÂŁ",
      "Â¢ Â¡",
      "ÂŀÂŁ Âľ",
      "ÂŀÂŁ ÂŀÂŀÂĿ",
      "ÂŀÂŁ Âŀ",
      "ÂŀÂĿ Âľ",
      "Ä Ĵ",
      "ÂŁ ÂŀÂŀÂŀÂŀÂŀÂŀÂŀÂŀ",
      "ÂŀÂ ®",
      "Ã Į",
      "Ä ¦",
      "ÂŀÂ ĳ",
      "ÂŀÂŀÂŀÂŀ ÂŁÂŀÂĿ",
      "ÂŀÂŀÂŀÂŀ ÂĿÂŀÂŁ",
      "Â¡ Âľ",
      "ÂŀÂĿ ÂŀÂŀÂĿ",
      "ÂĿÂŀÂŀÂŀÂŀ ÂŀÂŀÂŁ",
      "ÂŀÂŁ ÂŀÂŀÂŁ",
      "ÂĽ Âŀ",
      "ÂŀÂĿ Âŀ",
      "ÂŁÂŀÂŀÂŀÂŀ ÂŀÂŀÂŁ",
      "Ã İ",
      "ÂŀÂ ©",
      "~ Ā",
      "ÂŀÂŀÂĿ ÂŀÂŀÂĿ",
      "Âļ Â¡",
      "ÂŀÂŀ ÂŀÂ¡",
      "ÂŀÂŀÂŀÂŁ ÂŀÂŀÂŁ",
      "ÂŀÂŀÂŀÂŀ ÂŁÂŀÂŁ",
      "ÂŀÂŀ ÂŀÂĽ",
      "ÂŀÂ «",
      "ÂŀÂŀÂŀÂŀÂŀÂŀÂŀÂŀÂŀÂŀÂŀÂŀ ÂŀÂŁ",
      "ÂŀÂŀÂŀÂŀÂŀÂŀÂŀÂŀÂŀÂŀÂŀÂŀÂŀÂŀÂŀÂŀ ÂŀÂŀÂŀÂŀÂŀÂŀÂŀÂŀ",
      "ÂŁ ÂĿÂŀÂŁ",
      "Ã Ĳ",
      "ÂŀÂ Ĵ",
      "Â¡ Â¢",
      "Âļ ÂĽ",
      "ÂŀÂŀÂŀÂŀ ÂĿÂŁ",
      "ÂŀÂ Ń",
      "ÂŀÂŀÂŀÂŀÂŀÂŀÂŀÂŀÂŀÂŀÂŀÂŀ Âŀ",
      "ÂŁ ÂĿÂŀÂĿ",
      "Ã ĳ",
      "ÂŀÂŀÂĿ ÂĿÂĿ",
      "ÂŀÂŀÂŀÂŀÂŀÂŀÂŀÂŀÂŀÂŀÂŀÂŀ ÂŀÂĿ",
      "Âļ Âľ",
      "Ã Ĵ",
      "ÂŀÂŀÂŁ ÂŁÂŁ",
      "ÂĽ Â¢",
      "ÂŀÂŀÂŀÂŁ ÂŀÂŀÂĿ",
      "ÂŀÂŀÂŀÂŀ ÂĿÂŀÂĿ",
      "ÂŁ Âĺ",
      "ÂĿ Âĺ",
      "ÂĽ ÂŀÂŁ",
      "ÂĽ Âļ",
      "Â¡ Âŀ",
      "ÂĿÂŀÂŀÂŀÂŀ ÂŀÂŀÂĿ",
      "ÂĿ Â¤",
      "Ã Ķ",
      "ÂŀÂŀÂŁ ÂŀÂŀÂŁ",
      "Ã ĵ",
      "ÂŁ Â¤",
      "ÂŀÂŀÂŀÂŀ ÂŀÂŀÂľ",
      "ÂŀÂŀÂŀÂŀ ÂŀÂŀÂŀÂŁ",
      "ÂŀÂŀÂŀÂŀÂŀÂŀÂŁ ÂŀÂŀ",
      "ÂŀÂŀÂŀÂŀÂŀÂŀÂĿ ÂŀÂŀ",
      "Â¡ ÂŀÂĿ",
      "ÂŀÂŀÂŀÂŀ Âľ",
      "ÂŁÂŀÂŀÂŀÂŀ ÂŀÂŀÂĿ",
      "ÂŀÂŀÂŀÂŀ ÂŀÂŀÂŀÂĿ",
      "ÂŀÂŀÂŁ ÂŀÂŀÂĿ",
      "Âľ ÂĻ",
      "ÂĿ ÂŀÂ¢",
      "Âľ Â£",
      "ÂŀÂ Ħ",
      "Â¡ Âļ",
      "Ã ķ",
      "Ä Ń",
      "Â¡ ÂŀÂŁ",
      "ÂŁ ÂŀÂļ",
      "ÂŀÂŀÂŀÂĿ ÂŀÂŀÂĿ",
      "Â¢ Â¢",
      "ÂŀÂŀ Â¤",
      "ÂŁÂŁ ÂŀÂĿ",
      "ÂĿ ÂŀÂļ",
      "Ã ĸ",
      "ÂŀÂŀÂŀÂŀÂŀÂŀÂŀÂŀÂŀÂŀÂŀÂŀÂŀÂŀÂŀÂŀ Âŀ",
      "Âľ ÂŀÂ¡",
      "ÂŀÂŀ Âĺ",
      "ÂĽ ÂŀÂĿ",
      "ÂŁÂŀÂŀÂŀÂŀ Âŀ",
      "ÂŀÂŀÂŀÂŁ ÂŀÂŁ",
      "Â¡ ÂŀÂľ",
      "Ã ĺ",
      "ÂŀÂ ¸",
      "ÂĿÂŁ ÂŀÂŁ",
      "ÂĿÂŀÂŀÂŀÂŀ Âŀ",
      "Ã Ĺ",
      "ÂŁ ÂŀÂ¢",
      "ÂŀÂŀÂŀÂĿ ÂŀÂĿ",
      "ÂĿÂĿ ÂŀÂŁ",
      "Âľ ÂŁÂŁ",
      "ÂĽ ÂŀÂŀ",
      "Â¡ ÂŀÂŀ",
      "Âļ Â¢",
      "ÂŀÂŀÂŀÂŀÂŀÂŀÂŀÂŀÂŀÂŀÂŀÂŀÂŀÂŀÂŀÂŀÂŀÂŀÂŀÂŀ ÂŀÂŀÂŀ",
      "Ã Ļ",
      "ÂŀÂ Į",
      "Â¡ Â£",
      "Âļ Âŀ",
      "ÂŀÂŀÂŀÂŀÂŀÂŀÂŀÂŀ ÂŀÂŁ",
      "ÂĿÂŁ ÂŀÂĿ",
      "ÂĽ ÂĿ",
      "ÂŀÂľ Âľ",
      "ÂĽ ÂĻ",
      "Ã ļ",
      "ÂŁÂŁ ÂŀÂŁ",
      "ÂĽ Â£",
      "Âľ ÂŀÂĽ",
      "Ã Ľ",
      "Â¡ ÂĻ",
      "ÂŁ ÂĹ",
      "ÂŀÂŀÂŀÂŀÂŀÂŀÂŀÂŀ ÂŀÂĿ",
      "Ã ľ",
      "Âļ Âļ",
      "ÂĿÂĿ ÂŀÂĿ",
      "ÂŀÂŀÂŀÂŀÂŀÂŀÂŀÂŀ ÂŀÂŀÂŀ",
      "ÂŀÂ Ĭ",
      "ÂĿ ÂĹ",
      "ÂĽ ÂŀÂľ",
      "ÂŁÂŁ Âľ",
      "Â¢ Âľ",
      "ÂŀÂŀÂŀÂŀÂŀÂŀÂŀÂŀÂŀÂŀÂŀÂŀÂŀÂŀÂŀÂŀ ÂŀÂŀÂŀÂŀÂŀÂŀÂŀÂŀÂŀÂŀÂŀÂŀ",
      "ÂŁ Â¥",
      "ÂĿÂĿ Âŀ",
      "ÂŀÂŀÂŀÂŀ ÂĿ",
      "ÂĿÂŁ Âŀ",
      "ÂŀÂŀÂŁ Âŀ",
      "ÂĿ Â¥",
      "ÂŀÂ °",
      "ÂŀÂĿ ÂŀÂľ",
      "ÂŀÂŀÂŀÂŀ ÂŀÂľ",
      "Âł Âł",
      "ÂŀÂŀÂĿ Âŀ",
      "ÂŁÂĿ Âľ",
      "ÂĽ ÂŁ",
      "Âļ ÂĻ",
      "Ã ŀ",
      "ÂŀÂŀÂĿ ÂŀÂľ",
      "ÂĿÂŁ ÂŀÂŀ",
      "Ã Ł",
      "} Ā",
      "Â¢ Âŀ",
      "Â£ Â¡",
      "Ã ¡",
      "Ã ł",
      "ÂŁÂĿ Âŀ",
      "ÂŁÂŁ Âŀ",
      "Â¢ ÂĽ",
      "ÂŀÂŀÂŀÂŀ ÂŁÂŀÂŀÂŀÂŀ",
      "Âľ Âĺ",
      "Ã ¢",
      "Â¢ Â£",
      "ÂŀÂŀ ÂĹ",
      "ÂĿÂŀÂŀ ÂŀÂľ",
      "ÂĿ ÂŀÂŀÂŀÂŀÂŀÂŀÂŀÂŀÂŀÂŀÂŀÂŀ",
      "ÂŁ ÂŀÂŀÂŀÂŀÂŀÂŀÂŀÂŀÂŀÂŀÂŀÂŀ",
      "ÂŀÂŁ ÂŀÂľ",
      "ÂŀÂŀÂĿ ÂŁÂŁ",
      "ÂŁÂĿ ÂŀÂŀ",
      "ÂŀÂŀÂŁ ÂŀÂŀ",
      "ÂŀÂŀÂĿ Âľ",
      "ÂĽ Âĺ",
      "ÂŀÂŀ Â¥",
      "Â¢ Âļ",
      "ÂŀÂŀÂŀÂŀ ÂĿÂŀÂŀÂŀÂŀ",
      "Ã §",
      "ÂĿÂĿ ÂŀÂŀ",
      "Â¡ ÂŁ",
      "Â¢ ÂĻ",
      "Âľ Â¤",
      "Âŀ ~",
      "ÂŀÂŀÂŁ ÂĿÂĿ",
      "Âļ Â£",
      "ÂŀÂŀÂŀÂŀÂŀÂŀÂŁ ÂŀÂŀÂŀÂŀÂŀÂŀÂŁ",
      "Ã ¥",
      "Ã ¤",
      "ÂŀÂŁ ÂŁÂŁ",
      "Ã ¦",
      "Ã ¨",
      "ÂŀÂŀÂŁ Âľ",
      "ÂŀÂŀÂĿ ÂŀÂŀÂŀÂŁ",
      "Â¡ ÂĿ",
      "ÂŀÂŀÂŁ ÂŀÂŀÂŀÂĿ",
      "ÂŀÂľ ÂŀÂĿ",
      "| Ā",
      "ÂŀÂ ¶",
      "ÂĻ Âľ",
      "ÂŀÂŀÂŁ ÂĿÂŁ",
      "Â¡ Â¤",
      "ÂĽ ÂŀÂ¡",
      "ÂŀÂŀÂŁ ÂŀÂŀÂŀ",
      "ÂĿÂŀÂĿ ÂŀÂĿ",
      "Â¡ Âĺ",
      "Ã ©",
      "Ä ±",
      "ÂĢ Ā",
      "ÂĽ Â¤",
      "ÂĿ Â¦",
      "Ã «",
      "ÂŁ Âĸ",
      "Â£ Â£",
      "ÂĿ Âĸ",
      "ÂŀÂ į",
      "Ã ª",
      "Âľ ÂĿÂĿ",
      "Â¡ ÂŀÂĽ",
      "ÂŁÂŁ ÂŀÂŀÂŀÂŀ",
      "ÂŀÂ Ĩ",
      "ÂŀÂľ ÂŀÂŁ",
      "ÂŀÂ ĩ",
      "Â£ Â¢",
      "Âľ ÂŀÂŀÂŀÂĿ",
      "Ã ¬",
      "ÂŁÂŁ ÂŀÂŀ",
      "ÂŁ Â¦",
      "Ä °",
      "Ã Ń",
      "Âļ Âĺ",
      "Ã ®",
      "ÂŁ ÂŀÂŀÂŀÂŀÂŀÂŀÂŀÂŀÂŀÂŀÂŀÂŀÂŀÂŀÂŀÂŀ",
      "Ä ¯",
      "ÂŀÂŀÂŀÂŀÂŀÂŀÂĿ ÂŀÂŀÂŀÂŀÂŀÂŀÂĿ",
      "ÂŀÂŀÂĿ ÂĿÂŁ",
      "Âľ ÂŀÂŀÂŀÂŁ",
      "ÂŀÂľ Âŀ",
      "Ā Â¤",
      "ÂĽ ÂŀÂŀÂŁ",
      "ÂŀÂŀÂŀÂŀÂŀÂŀÂŀÂŀ ÂŀÂŀÂŁ",
      "ÂĻ Âŀ",
      "ÂŀÂŀÂŀÂŀÂŀÂŀÂŀÂŀ ÂŀÂŀÂŀÂŁ",
      "Ä ®",
      "ÂĽ ÂŀÂĽ",
      "ÂĻ Â¡",
      "Ã ¯",
      "Ä ²",
      "ÂŁÂŀÂŁ ÂŀÂŁ",
      "Â¢ ÂŀÂĿ",
      "Â¢ Â¤",
      "ÂĻ Âļ",
      "ÂŀÂŀÂľ ÂŀÂĿ",
      "z Ä¼",
      "Ã °",
      "Âľ ÂĿÂŁ",
      "ÂŀÂŁ Â¡",
      "ÂŀÂŀÂŀÂŀ ÂĿÂŀÂ",
      "ÂĿ ÂŀÂŀÂŀÂŀÂŀÂŀÂŀÂŀÂŀÂŀÂŀÂŀÂŀÂŀÂŀÂŀ",
      "Âľ ÂŀÂŀÂŀÂŀ",
      "ÂĽ ÂŀÂŀÂĿ",
      "Ã ³",
      "Âĳ ġ",
      "Âľ ÂĹ",
      "ÂĿÂĿ ÂŀÂŀÂŀÂŀ",
      "Ā Â¥",
      "ÂŁ ÂŀÂĻ",
      "Ã ±",
      "Ā Â£",
      "Â¢ Âĺ",
      "ÂŀÂŁ ÂĿÂŁ",
      "ÂĻ Â£",
      "ÂĿ ÂŀÂ£",
      "ÂŀÂŁ ÂĿÂĿ",
      "ÂŀÂŀÂĿ ÂŀÂŀÂŀ",
      "ÂŀÂŁ ÂĽ",
      "ÂĻ Â¢",
      "Âľ Â¥",
      "ÂĻ ÂĽ",
      "ÂŀÂŀÂŀÂŀÂŀÂŀÂĿ ÂŀÂŀÂŀÂŀÂŀÂŀÂŁ",
      "Â¡ ÂŀÂŀÂŁ",
      "Ã ´",
      "Ã µ",
      "ÂĿ ÂŀÂĻ",
      "ÂŁÂŀÂŀ ÂŀÂľ",
      "ÂŀÂŀÂŀÂŀÂŀÂŀÂŀÂŀ ÂŀÂŀÂĿ",
      "Âļ Â¤",
      "Ã ¶",
      "ÂŀÂŀ Âĸ",
      "ÂŀÂŀÂŀÂŀÂŀÂŀÂŀÂŀ ÂŀÂŀÂŀÂĿ",
      "ÂŀÂŀÂŀÂŀÂŀÂŀ Â´",
      "Âľ ÂŀÂŀÂľ",
      "ÂŀÂĿ ÂĿÂĿ",
      "Â¡ ÂŀÂŀÂĿ",
      "ÂĿÂŁ ÂŀÂŀÂŀÂŀ",
      "ÂŀÂŁ ÂŁ",
      "ÂŀÂŀÂŀÂŁ ÂŁÂŀÂĿ",
      "Ä ³",
      "ÂŀÂ ¯",
      "Â¡ ÂŀÂ¡",
      "ÂŀÂŀÂŀÂĿ ÂĿÂŀÂŁ",
      "Ā Â¦",
      "Âľ ÂŀÂ¢",
      "ÂŀÂľ ÂŀÂŀ",
      "Ã ¸",
      "Â£ Âŀ",
      "ÂŀÂĿ ÂĽ",
      "ÂŀÂŁ ÂĿ",
      "ÂŁ ÂŀÂ£",
      "Ä ´",
      "ÂĻ ÂĻ",
      "Âļ ÂĿ",
      "x Ä¼",
      "Ã ¹",
      "ÂŀÂŀ Â¦",
      "ÂŀÂŀÂĿ ÂŀÂŀÂŀÂ",
      "Ā Â¢",
      "Ā Â§",
      "Ã º",
      "Ã »",
      "ÂŀÂŀÂŀÂŀÂŀÂŀÂĿ ÂŀÂŀÂŀ",
      "Ã ¼",
      "ÂŁ Âķ",
      "ÂŀÂĿ ÂŁÂŁ",
      "Ã ·",
      "ÂŀÂĿ Â¡",
      "ÂĽ ÂĹ",
      "ÂŀÂŀ ÂŀÂ¢",
      "y Ä¼",
      "Ä ª",
      "ÂŀÂŀÂŁ ÂŀÂľ",
      "Âľ ÂŀÂļ",
      "Ä Ĥ",
      "ÂŀÂŀÂŀÂŀÂŀÂŀÂŀÂŀÂŀÂŀÂŀÂŀÂŀÂŀÂŀÂŀÂŀÂŀÂŀÂŀÂŀÂŀÂŀÂŀÂŀÂŀÂŀÂŀ ÂŀÂŀ",
      "Ä «",
      "Ā Â¨",
      "Âĺ Âŀ",
      "ÂŀÂĿ ÂĿ",
      "Â¢ ÂŀÂľ",
      "ÂŀÂ »",
      "Ä ¬",
      "Ã ¿",
      "Âľ ÂĿÂŀÂŁ",
      "Ä Ģ",
      "Âĳ ġĀ",
      "Ā Â©",
      "ÂŀÂŀÂŀÂĿ ÂŁÂŁ",
      "Ä ī",
      "Ä ģ",
      "ÂŀÂŀÂŀÂŀÂŀÂŀÂŁ ÂŀÂŀÂŀ",
      "ÂŀÂ ĭ",
      "Â£ Âļ",
      "ÂŀÂ ·",
      "Ã ¾",
      "Âĵ ÂĴ",
      "ÂŀÂŀÂŀÂŀ ÂĿÂŀ",
      "Ä ħ",
      "Ä »",
      "ÂŀÂŀÂŀÂŀÂŀÂŀÂŀÂŀÂŀÂŀÂŀÂŀÂŀÂŀÂŀÂŀ ÂŀÂŀ",
      "ÂŀÂŀ ÂŀÂļ",
      "Â¡ ÂĹ",
      "ÂĻ Â¤",
      "Ä ĥ",
      "Ä ©",
      "Ä¼ Âª",
      "ÂĻ Âĺ",
      "Â£ ÂĽ",
      "Ä Ī",
      "Ä į",
      "ÂĿ Âĵ",
      "ÂŁ Âĵ",
      "Ä ĩ",
      "Âļ ÂŀÂŁ",
      "Âļ ÂŀÂľ",
      "{ Ā",
      "ÂĿ Âķ",
      "Ä Ĭ",
      "ÂĿ ÂŀÂŀÂŀÂŀÂŀÂŀÂŀÂŀÂŀ",
      "ÂŁ Â§",
      "Ä İ",
      "Â¡ Â¥",
      "Ä §",
      "ÂŀÂŀÂŀÂŀ ÂŁÂŀ",
      "ÂŀÂŀÂŀÂĿ ÂĿÂŁ",
      "ÂŀÂŀÂŀÂĿ Âŀ",
      "ÂĿ Â§",
      "Â¢ ÂŀÂŁ",
      "Âļ ÂŀÂŀ",
      "Â¢ ÂŀÂŀ",
      "w Ä¼",
      "Ä Ħ",
      "Ä Ĩ",
      "Â£ Â¤",
      "ÂĪ Âĺ",
      "ÂŀÂĿ ÂĿÂŁ",
      "ÂŀÂŀÂŁ ÂĿÂŀÂŀ",
      "Âļ Â¥",
      "Ä ¶",
      "Â£ Âĺ",
      "Â£ Âľ",
      "Ä ¨",
      "Ä ¡",
      "ÂĽ Â¥",
      "ÂŀÂŀÂĿ ÂĿÂŀÂŁ",
      "Âļ ÂĹ",
      "Âļ ÂŁ",
      "ÂŀÂĿ ÂŁ",
      "Ä ĭ",
      "Ä ¤",
      "ÂŀÂŀÂŀÂŁ ÂŁÂŁ",
      "Ä Į",
      "Ä ı",
      "ÂŁÂĿ ÂŀÂľ",
      "Â¢ Â¥",
      "Ä Ĳ",
      "Ä µ",
      "Ä ķ",
      "ÂŀÂŀÂŁ ÂŀÂŀÂŀÂ",
      "t Ä¼",
      "ÂŀÂŀÂĿ ÂŁÂŀÂŀ",
      "v Ä¼",
      "Âľ Âĸ",
      "Ä Ĺ",
      "Ä ĳ",
      "Ä ĸ",
      "Ä ļ",
      "ÂŁÂŀÂŀÂĿ ÂŀÂŀ",
      "Ä ¥",
      "Â¢ ÂŀÂĽ",
      "Âļ ÂŀÂĿ",
      "ÂŀÂŀÂŀÂĿ ÂĿÂĿ",
      "ÂŀÂŀÂŀÂŀ ÂŁÂĿ",
      "Ä Ľ",
      "Âĺ ÂĽ",
      "Ä Ŀ",
      "Ä ŀ",
      "ÂŁ ÂŀÂŀÂŀÂŀÂŀÂŀÂŀÂŀÂŀ",
      "Âľ ÂĿÂľ",
      "Ä ĵ",
      "ÂŀÂŀÂŁ ÂŁÂŀÂĿ",
      "ÂŀÂŀÂŀÂŁ ÂĿÂĿ",
      "Â¢ ÂĹ",
      "Â¡ ÂŀÂļ",
      "Âĺ Âĺ",
      "Ä ·",
      "Ä £",
      "u Ä¼",
      "Ä ĺ",
      "Ä ł",
      "Ä Ķ",
      "Ä Ļ",
      "Ā Â¡",
      "ÂĿÂŀÂŀ Â¡",
      "Ä º",
      "ÂŁÂŁ ÂŀÂľ",
      "Â£ ÂĻ",
      "ÂĿÂŁ Âľ",
      "ÂĿÂŀÂŀÂŁ ÂŀÂŀ",
      "Ā Âĺ",
      "Â¤ Â¡"
    ]
  }
}