{
  "version": "1.0",
  "truncation": null,
  "padding": null,
  "added_tokens": [],
  "normalizer": null,
  "pre_tokenizer": {
    "type": "ByteLevel",
    "add_prefix_space": false,
    "trim_offsets": true,
    "use_regex": true
  },
  "post_processor": {
    "type": "ByteLevel",
    "add_prefix_space": true,
    "trim_offsets": false,
    "use_regex": true
  },
  "decoder": {
    "type": "ByteLevel",
    "add_prefix_space": true,
    "trim_offsets": true,
    "use_regex": true
  },
  "model": {
    "type": "BPE",
    "dropout": null,
    "unk_token": null,
    "continuing_subword_prefix": null,
    "end_of_word_suffix": null,
    "fuse_unk": false,
    "byte_fallback": false,
    "ignore_merges": false,
    "vocab": {
      "\u0000": 0,
      "\u0001": 1,
      "\u0002": 2,
      "\u0003": 3,
      "\u0004": 4,
      "\u0005": 5,
      "\u0006": 6,
      "\u0007": 7,
      "\b": 8,
      "\t": 9,
      "\n": 10,
      "\u000b": 11,
      "\f": 12,
      "\r": 13,
      "\u000e": 14,
      "\u000f": 15,
      "\u0010": 16,
      "\u0011": 17,
      "\u0012": 18,
      "\u0013": 19,
      "\u0014": 20,
      "\u0015": 21,
      "\u0016": 22,
      "\u0017": 23,
      "\u0018": 24,
      "\u0019": 25,
      "\u001a": 26,
      "\u001b": 27,
      "\u001c": 28,
      "\u001d": 29,
      "\u001e": 30,
      "\u001f": 31,
      " ": 32,
      "!": 33,
      "\"": 34,
      "#": 35,
      "$": 36,
      "%": 37,
      "&": 38,
      "'": 39,
      "(": 40,
      ")": 41,
      "*": 42,
      "+": 43,
      ",": 44,
      "-": 45,
      ".": 46,
      "/": 47,
      "0": 48,
      "1": 49,
      "2": 50,
      "3": 51,
      "4": 52,
      "5": 53,
      "6": 54,
      "7": 55,
      "8": 56,
      "9": 57,
      ":": 58,
      ";": 59,
      "<": 60,
      "=": 61,
      ">": 62,
      "?": 63,
      "@": 64,
      "A": 65,
      "B": 66,
      "C": 67,
      "D": 68,
      "E": 69,
      "F": 70,
      "G": 71,
      "H": 72,
      "I": 73,
      "J": 74,
      "K": 75,
      "L": 76,
      "M": 77,
      "N": 78,
      "O": 79,
      "P": 80,
      "Q": 81,
      "R": 82,
      "S": 83,
      "T": 84,
      "U": 85,
      "V": 86,
      "W": 87,
      "X": 88,
      "Y": 89,
      "Z": 90,
      "[": 91,
      "\\": 92,
      "]": 93,
      "^": 94,
      "_": 95,
      "`": 96,
      "a": 97,
      "b": 98,
      "c": 99,
      "d": 100,
      "e": 101,
      "f": 102,
      "g": 103,
      "h": 104,
      "i": 105,
      "j": 106,
      "k": 107,
      "l": 108,
      "m": 109,
      "n": 110,
      "o": 111,
      "p": 112,
      "q": 113,
      "r": 114,
      "s": 115,
      "t": 116,
      "u": 117,
      "v": 118,
      "w": 119,
      "x": 120,
      "y": 121,
      "z": 122,
      "{": 123,
      "|": 124,
      "}": 125,
      "~": 126,
      "": 127,
      "": 128,
      "": 129,
      "": 130,
      "": 131,
      "": 132,
      "": 133,
      "": 134,
      "": 135,
      "": 136,
      "": 137,
      "": 138,
      "": 139,
      "": 140,
      "": 141,
      "": 142,
      "": 143,
      "": 144,
      "": 145,
      "": 146,
      "": 147,
      "": 148,
      "": 149,
      "": 150,
      "": 151,
      "": 152,
      "": 153,
      "": 154,
      "": 155,
      "": 156,
      "": 157,
      "": 158,
      "": 159,
      " ": 160,
      "¡": 161,
      "¢": 162,
      "£": 163,
      "¤": 164,
      "¥": 165,
      "¦": 166,
      "§": 167,
      "¨": 168,
      "©": 169,
      "ª": 170,
      "«": 171,
      "¬": 172,
      "­": 173,
      "®": 174,
      "¯": 175,
      "°": 176,
      "±": 177,
      "²": 178,
      "³": 179,
      "´": 180,
      "µ": 181,
      "¶": 182,
      "·": 183,
      "¸": 184,
      "¹": 185,
      "º": 186,
      "»": 187,
      "¼": 188,
      "½": 189,
      "¾": 190,
      "¿": 191,
      "À": 192,
      "Á": 193,
      "Â": 194,
      "Ã": 195,
      "Ä": 196,
      "Å": 197,
      "Æ": 198,
      "Ç": 199,
      "È": 200,
      "É": 201,
      "Ê": 202,
      "Ë": 203,
      "Ì": 204,
      "Í": 205,
      "Î": 206,
      "Ï": 207,
      "Ð": 208,
      "Ñ": 209,
      "Ò": 210,
      "Ó": 211,
      "Ô": 212,
      "Õ": 213,
      "Ö": 214,
      "×": 215,
      "Ø": 216,
      "Ù": 217,
      "Ú": 218,
      "Û": 219,
      "Ü": 220,
      "Ý": 221,
      "Þ": 222,
      "ß": 223,
      "à": 224,
      "Ā": 225,
      "ā": 226,
      "Ă": 227,
      "ă": 228,
      "Ą": 229,
      "ą": 230,
      "Ć": 231,
      "ć": 232,
      "Ĉ": 233,
      "ĉ": 234,
      "Ċ": 235,
      "ċ": 236,
      "Č": 237,
      "č": 238,
      "Ď": 239,
      "ď": 240,
      "Đ": 241,
      "đ": 242,
      "Ē": 243,
      "ē": 244,
      "Ĕ": 245,
      "ĕ": 246,
      "Ė": 247,
      "ė": 248,
      "Ę": 249,
      "ę": 250,
      "Ě": 251,
      "ě": 252,
      "Ĝ": 253,
      "ĝ": 254,
      "Ğ": 255,
      "ğ": 256,
      "Ġ": 257,
      "ġ": 258,
      "Ģ": 259,
      "ģ": 260,
      "Ĥ": 261,
      "ĥ": 262,
      "Ħ": 263,
      "ħ": 264,
      "Ĩ": 265,
      "ĩ": 266,
      "Ī": 267,
      "ī": 268,
      "Ĭ": 269,
      "ĭ": 270,
      "Į": 271,
      "į": 272,
      "İ": 273,
      "ı": 274,
      "Ĳ": 275,
      "ĳ": 276,
      "Ĵ": 277,
      "ĵ": 278,
      "Ķ": 279,
      "ķ": 280,
      "ĸ": 281,
      "Ĺ": 282,
      "ĺ": 283,
      "Ļ": 284,
      "ļ": 285,
      "Ľ": 286,
      "ľ": 287,
      "Ŀ": 288,
      "ŀ": 289,
      "Ł": 290,
      "ł": 291,
      "Ń": 292,
      "pp": 293,
      "Ãł": 294,
      "qp": 295,
      "op": 296,
      "rp": 297,
      "np": 298,
      "sp": 299,
      "ÂĢ": 300,
      "mp": 301,
      "Âģ": 302,
      "ÂĦ": 303,
      "ÂĤ": 304,
      "tp": 305,
      "lp": 306,
      "Âĥ": 307,
      "ÂĨ": 308,
      "Âĩ": 309,
      "Âħ": 310,
      "ÂĲ": 311,
      "up": 312,
      "kp": 313,
      "ÂĪ": 314,
      "vp": 315,
      "Âī": 316,
      "jp": 317,
      "qq": 318,
      "oo": 319,
      "ÂĬ": 320,
      "Âĭ": 321,
      "Âķ": 322,
      "ÂĮ": 323,
      "wp": 324,
      "qo": 325,
      "ip": 326,
      "Âį": 327,
      "no": 328,
      "ro": 329,
      "Âİ": 330,
      "rq": 331,
      "nq": 332,
      "Âı": 333,
      "xp": 334,
      "hp": 335,
      "ppp": 336,
      "oq": 337,
      "Âĳ": 338,
      "rr": 339,
      "nn": 340,
      "Â£": 341,
      "ÂĴ": 342,
      "mo": 343,
      "sq": 344,
      "so": 345,
      "yp": 346,
      "mq": 347,
      "gp": 348,
      "Âĵ": 349,
      "nr": 350,
      "Â¬": 351,
      "ÂĶ": 352,
      "Ãĳ": 353,
      "rn": 354,
      "zp": 355,
      "tq": 356,
      "fp": 357,
      "lo": 358,
      "to": 359,
      "Â³": 360,
      "lq": 361,
      "sr": 362,
      "Âĸ": 363,
      "mr": 364,
      "mn": 365,
      "sn": 366,
      "ÂĹ": 367,
      "Âĺ": 368,
      "qr": 369,
      "ep": 370,
      "qn": 371,
      "tr": 372,
      "uo": 373,
      "ÂĻ": 374,
      "ss": 375,
      "ko": 376,
      "mm": 377,
      "lr": 378,
      "tn": 379,
      "ln": 380,
      "po": 381,
      "Âļ": 382,
      "uq": 383,
      "ppo": 384,
      "ms": 385,
      "kq": 386,
      "ÂĽ": 387,
      "Âľ": 388,
      "pq": 389,
      "sm": 390,
      "ur": 391,
      "vo": 392,
      "dp": 393,
      "ÂĿ": 394,
      "un": 395,
      "ppq": 396,
      "kr": 397,
      "kn": 398,
      "jo": 399,
      "ts": 400,
      "tm": 401,
      "Âŀ": 402,
      "ls": 403,
      "vq": 404,
      "lm": 405,
      "or": 406,
      "pr": 407,
      "jq": 408,
      "on": 409,
      "pn": 410,
      "ÂŁ": 411,
      "vr": 412,
      "Âł": 413,
      "us": 414,
      "vn": 415,
      "tt": 416,
      "jr": 417,
      "jn": 418,
      "ks": 419,
      "cp": 420,
      "um": 421,
      "km": 422,
      "wq": 423,
      "Â¡": 424,
      "lt": 425,
      "wo": 426,
      "ns": 427,
      "ppr": 428,
      "io": 429,
      "ll": 430,
      "mt": 431,
      "iq": 432,
      "Â¢": 433,
      "pppp": 434,
      "st": 435,
      "nm": 436,
      "wr": 437,
      "bp": 438,
      "ut": 439,
      "vs": 440,
      "ir": 441,
      "ml": 442,
      "kt": 443,
      "wn": 444,
      "ppn": 445,
      "rs": 446,
      "js": 447,
      "xq": 448,
      "in": 449,
      "ps": 450,
      "xo": 451,
      "ul": 452,
      "vm": 453,
      "Â¤": 454,
      "qs": 455,
      "kl": 456,
      "jm": 457,
      "rm": 458,
      "tl": 459,
      "ho": 460,
      "ap": 461,
      "hq": 462,
      "Â¥": 463,
      "os": 464,
      "ws": 465,
      "xr": 466,
      "pm": 467,
      "qm": 468,
      "uu": 469,
      "vt": 470,
      "Â¦": 471,
      "vl": 472,
      "om": 473,
      "jt": 474,
      "is": 475,
      "ku": 476,
      "xn": 477,
      "wm": 478,
      "Â§": 479,
      "hn": 480,
      "hr": 481,
      "jl": 482,
      "yq": 483,
      "im": 484,
      "pt": 485,
      "kk": 486,
      "sl": 487,
      "pl": 488,
      "yo": 489,
      "Â¨": 490,
      "wt": 491,
      "uk": 492,
      "xs": 493,
      "yr": 494,
      "nt": 495,
      "gq": 496,
      "go": 497,
      "zr": 498,
      "qpo": 499,
      "Â©": 500,
      "vu": 501,
      "wl": 502,
      "rt": 503,
      "it": 504,
      "opq": 505,
      "il": 506,
      "pps": 507,
      "xm": 508,
      "ppm": 509,
      "opo": 510,
      "nl": 511,
      "qpq": 512,
      "hs": 513,
      "ju": 514,
      "zq": 515,
      "vk": 516,
      "yn": 517,
      "hm": 518,
      "rl": 519,
      "Âª": 520,
      "gn": 521,
      "jk": 522,
      "pu": 523,
      "zo": 524,
      "xt": 525,
      "gr": 526,
      "ys": 527,
      "lu": 528,
      "pk": 529,
      "Â«": 530,
      "fo": 531,
      "vv": 532,
      "wu": 533,
      "qt": 534,
      "xl": 535,
      "fq": 536,
      "kpp": 537,
      "tu": 538,
      "iu": 539,
      "ym": 540,
      "vÃł": 541,
      "mu": 542,
      "ht": 543,
      "jv": 544,
      "gs": 545,
      "hl": 546,
      "kv": 547,
      "jpp": 548,
      "zn": 549,
      "ÂŃ": 550,
      "rÃł": 551,
      "uÃł": 552,
      "wk": 553,
      "yt": 554,
      "Â®": 555,
      "gm": 556,
      "wÃł": 557,
      "pv": 558,
      "ot": 559,
      "Â¯": 560,
      "sÃł": 561,
      "ql": 562,
      "su": 563,
      "fn": 564,
      "vpp": 565,
      "jj": 566,
      "fr": 567,
      "ik": 568,
      "opr": 569,
      "xu": 570,
      "tÃł": 571,
      "nu": 572,
      "Â°": 573,
      "yl": 574,
      "spp": 575,
      "mpp": 576,
      "qpr": 577,
      "ol": 578,
      "pj": 579,
      "tk": 580,
      "sk": 581,
      "pw": 582,
      "xÃł": 583,
      "eo": 584,
      "qÃł": 585,
      "npp": 586,
      "hu": 587,
      "lpp": 588,
      "tpp": 589,
      "zm": 590,
      "lk": 591,
      "zs": 592,
      "jw": 593,
      "pi": 594,
      "rpo": 595,
      "eq": 596,
      "npo": 597,
      "xk": 598,
      "ru": 599,
      "ipp": 600,
      "Â±": 601,
      "mk": 602,
      "vj": 603,
      "opn": 604,
      "rpq": 605,
      "upp": 606,
      "gt": 607,
      "npq": 608,
      "vw": 609,
      "qpn": 610,
      "yÃł": 611,
      "Yp": 612,
      "gl": 613,
      "hk": 614,
      "fm": 615,
      "wpp": 616,
      "fs": 617,
      "er": 618,
      "wv": 619,
      "zt": 620,
      "iv": 621,
      "yu": 622,
      "Â²": 623,
      "px": 624,
      "zÃł": 625,
      "wj": 626,
      "rpp": 627,
      "en": 628,
      "yk": 629,
      "uv": 630,
      "ph": 631,
      "rk": 632,
      "ij": 633,
      "zl": 634,
      "xpp": 635,
      "Xp": 636,
      "do": 637,
      "xv": 638,
      "gu": 639,
      "dq": 640,
      "lv": 641,
      "tv": 642,
      "nk": 643,
      "Â¶": 644,
      "Â´": 645,
      "ji": 646,
      "hpp": 647,
      "pÃł": 648,
      "ww": 649,
      "mv": 650,
      "gk": 651,
      "sv": 652,
      "fl": 653,
      "ft": 654,
      "jop": 655,
      "oÃł": 656,
      "py": 657,
      "zu": 658,
      "hv": 659,
      "jqp": 660,
      "jx": 661,
      "wi": 662,
      "Âµ": 663,
      "es": 664,
      "em": 665,
      "jÃł": 666,
      "qu": 667,
      "pg": 668,
      "zk": 669,
      "npr": 670,
      "iw": 671,
      "ou": 672,
      "npn": 673,
      "rpr": 674,
      "rpn": 675,
      "dn": 676,
      "Â·": 677,
      "qpp": 678,
      "dr": 679,
      "nÃł": 680,
      "pf": 681,
      "iÃł": 682,
      "yv": 683,
      "ops": 684,
      "spo": 685,
      "ix": 686,
      "jh": 687,
      "qk": 688,
      "iqp": 689,
      "Zp": 690,
      "mpo": 691,
      "ypp": 692,
      "mÃł": 693,
      "wx": 694,
      "mop": 695,
      "Â¸": 696,
      "gv": 697,
      "co": 698,
      "el": 699,
      "iop": 700,
      "hÃł": 701,
      "et": 702,
      "mqp": 703,
      "fu": 704,
      "jy": 705,
      "gpp": 706,
      "fk": 707,
      "wqp": 708,
      "sqp": 709,
      "lop": 710,
      "rv": 711,
      "pz": 712,
      "wop": 713,
      "lÃł": 714,
      "cq": 715,
      "wh": 716,
      "Â¹": 717,
      "tqp": 718,
      "lqp": 719,
      "nv": 720,
      "ii": 721,
      "kÃł": 722,
      "jrp": 723,
      "spq": 724,
      "Ā{": 725,
      "pd": 726,
      "zv": 727,
      "kqp": 728,
      "sop": 729,
      "jnp": 730,
      "gÃł": 731,
      "Âº": 732,
      "mpq": 733,
      "xx": 734,
      "ih": 735,
      "pe": 736,
      "uqp": 737,
      "kop": 738,
      "top": 739,
      "uj": 740,
      "tj": 741,
      "sj": 742,
      "lw": 743,
      "iy": 744,
      "xw": 745,
      "xj": 746,
      "cn": 747,
      "uop": 748,
      "kw": 749,
      "lj": 750,
      "Ā|": 751,
      "hw": 752,
      "mw": 753,
      "tw": 754,
      "kj": 755,
      "fÃł": 756,
      "mj": 757,
      "cr": 758,
      "uw": 759,
      "ds": 760,
      "zpp": 761,
      "hj": 762,
      "fv": 763,
      "{Ā": 764,
      "opp": 765,
      "Â»": 766,
      "kx": 767,
      "dm": 768,
      "fpp": 769,
      "hqp": 770,
      "Â¼": 771,
      "sw": 772,
      "xi": 773,
      "vqp": 774,
      "hop": 775,
      "bo": 776,
      "pc": 777,
      "vop": 778,
      "yj": 779,
      "ux": 780,
      "ui": 781,
      "bq": 782,
      "yw": 783,
      "lx": 784,
      "spn": 785,
      "gw": 786,
      "hx": 787,
      "|Ā": 788,
      "spr": 789,
      "vx": 790,
      "mpr": 791,
      "ti": 792,
      "ok": 793,
      "tx": 794,
      "mx": 795,
      "eÃł": 796,
      "Â½": 797,
      "yx": 798,
      "gj": 799,
      "gx": 800,
      "vi": 801,
      "hi": 802,
      "mnp": 803,
      "lnp": 804,
      "}Ā": 805,
      "ki": 806,
      "mpn": 807,
      "gqp": 808,
      "zw": 809,
      "eu": 810,
      "yi": 811,
      "si": 812,
      "pb": 813,
      "li": 814,
      "sx": 815,
      "dt": 816,
      "Â¾": 817,
      "qv": 818,
      "{{": 819,
      "lrp": 820,
      "mrp": 821,
      "yqp": 822,
      "pa": 823,
      "Ā}": 824,
      "krp": 825,
      "dÃł": 826,
      "knp": 827,
      "mi": 828,
      "gop": 829,
      "trp": 830,
      "yop": 831,
      "epp": 832,
      "snp": 833,
      "hh": 834,
      "srp": 835,
      "zx": 836,
      "zj": 837,
      "br": 838,
      "bn": 839,
      "gi": 840,
      "Wp": 841,
      "ov": 842,
      "dl": 843,
      "~Ā": 844,
      "fw": 845,
      "Â¿": 846,
      "tnp": 847,
      "unp": 848,
      "urp": 849,
      "ek": 850,
      "hrp": 851,
      "tpo": 852,
      "cs": 853,
      "Ãło": 854,
      "Ãłq": 855,
      "lpq": 856,
      "fj": 857,
      "zqp": 858,
      "rw": 859,
      "ev": 860,
      "lpo": 861,
      "uh": 862,
      "tpq": 863,
      "pppo": 864,
      "zop": 865,
      "Ā~": 866,
      "yh": 867,
      "rj": 868,
      "rop": 869,
      "zi": 870,
      "nqp": 871,
      "cm": 872,
      "ao": 873,
      "nw": 874,
      "nop": 875,
      "rqp": 876,
      "fx": 877,
      "th": 878,
      "|{": 879,
      "fqp": 880,
      "nj": 881,
      "aq": 882,
      "kh": 883,
      "gnp": 884,
      "cÃł": 885,
      "grp": 886,
      "vrp": 887,
      "ÃĢ": 888,
      "pppq": 889,
      "xop": 890,
      "gh": 891,
      "ynp": 892,
      "vh": 893,
      "vnp": 894,
      "ġĀ": 895,
      "fop": 896,
      "{|": 897,
      "fi": 898,
      "lh": 899,
      "yrp": 900,
      "xqp": 901,
      "ooo": 902,
      "Vp": 903,
      "dk": 904,
      "du": 905,
      "qqo": 906,
      "ct": 907,
      "yy": 908,
      "sh": 909,
      "ÂĢĀ": 910,
      "zh": 911,
      "Ãģ": 912,
      "ew": 913,
      "irp": 914,
      "cl": 915,
      "ooq": 916,
      "mh": 917,
      "Āġ": 918,
      "wnp": 919,
      "gy": 920,
      "Ãłr": 921,
      "inp": 922,
      "qqq": 923,
      "wrp": 924,
      "qoq": 925,
      "uy": 926,
      "ly": 927,
      "dpp": 928,
      "ej": 929,
      "Yq": 930,
      "nx": 931,
      "ky": 932,
      "}{": 933,
      "ar": 934,
      "ÂģĀ": 935,
      "Up": 936,
      "Yo": 937,
      "znp": 938,
      "ty": 939,
      "bs": 940,
      "my": 941,
      "ÃĤ": 942,
      "vy": 943,
      "Ãłn": 944,
      "an": 945,
      "{}": 946,
      "zrp": 947,
      "||": 948,
      "sy": 949,
      "xh": 950,
      "zy": 951,
      "fh": 952,
      "dv": 953,
      "bm": 954,
      "wy": 955,
      "bÃł": 956,
      "frp": 957,
      "qps": 958,
      "fnp": 959,
      "cu": 960,
      "Ãĥ": 961,
      "rx": 962,
      "ÂĤĀ": 963,
      "ex": 964,
      "gg": 965,
      "tpn": 966,
      "ei": 967,
      "Pp": 968,
      "opm": 969,
      "uz": 970,
      "lpr": 971,
      "gz": 972,
      "lmp": 973,
      "Tp": 974,
      "ĀÂĢ": 975,
      "eqp": 976,
      "ppt": 977,
      "jz": 978,
      "aÃł": 979,
      "sps": 980,
      "bt": 981,
      "xrp": 982,
      "pppppppp": 983,
      "kz": 984,
      "eop": 985,
      "upo": 986,
      "Ā`": 987,
      "ri": 988,
      "xnp": 989,
      "ppl": 990,
      "fy": 991,
      "|}": 992,
      "dj": 993,
      "qpm": 994,
      "ug": 995,
      "kmp": 996,
      "hy": 997,
      "hnp": 998,
      "ÃĦ": 999,
      "tpr": 1000,
      "lz": 1001,
      "ump": 1002,
      "ksp": 1003,
      "Ãłs": 1004,
      "jg": 1005,
      "vz": 1006,
      "usp": 1007,
      "kpq": 1008,
      "kpo": 1009,
      "Ãłm": 1010,
      "vg": 1011,
      "~{": 1012,
      "kg": 1013,
      "lpn": 1014,
      "dw": 1015,
      "lsp": 1016,
      "as": 1017,
      "tz": 1018,
      "iz": 1019,
      "xy": 1020,
      "tmp": 1021,
      "upq": 1022,
      "ÂĥĀ": 1023
    },
    "merges": [
      "p p",
      "Ã ł",
      "q p",
      "o p",
      "r p",
      "n p",
      "s p",
      "Â Ģ",
      "m p",
      "Â ģ",
      "Â Ħ",
      "Â Ĥ",
      "t p",
      "l p",
      "Â ĥ",
      "Â Ĩ",
      "Â ĩ",
      "Â ħ",
      "Â Ĳ",
      "u p",
      "k p",
      "Â Ī",
      "v p",
      "Â ī",
      "j p",
      "q q",
      "o o",
      "Â Ĭ",
      "Â ĭ",
      "Â ķ",
      "Â Į",
      "w p",
      "q o",
      "i p",
      "Â į",
      "n o",
      "r o",
      "Â İ",
      "r q",
      "n q",
      "Â ı",
      "x p",
      "h p",
      "pp p",
      "o q",
      "Â ĳ",
      "r r",
      "n n",
      "Â £",
      "Â Ĵ",
      "m o",
      "s q",
      "s o",
      "y p",
      "m q",
      "g p",
      "Â ĵ",
      "n r",
      "Â ¬",
      "Â Ķ",
      "Ã ĳ",
      "r n",
      "z p",
      "t q",
      "f p",
      "l o",
      "t o",
      "Â ³",
      "l q",
      "s r",
      "Â ĸ",
      "m r",
      "m n",
      "s n",
      "Â Ĺ",
      "Â ĺ",
      "q r",
      "e p",
      "q n",
      "t r",
      "u o",
      "Â Ļ",
      "s s",
      "k o",
      "m m",
      "l r",
      "t n",
      "l n",
      "p o",
      "Â ļ",
      "u q",
      "pp o",
      "m s",
      "k q",
      "Â Ľ",
      "Â ľ",
      "p q",
      "s m",
      "u r",
      "v o",
      "d p",
      "Â Ŀ",
      "u n",
      "pp q",
      "k r",
      "k n",
      "j o",
      "t s",
      "t m",
      "Â ŀ",
      "l s",
      "v q",
      "l m",
      "o r",
      "p r",
      "j q",
      "o n",
      "p n",
      "Â Ł",
      "v r",
      "Â ł",
      "u s",
      "v n",
      "t t",
      "j r",
      "j n",
      "k s",
      "c p",
      "u m",
      "k m",
      "w q",
      "Â ¡",
      "l t",
      "w o",
      "n s",
      "pp r",
      "i o",
      "l l",
      "m t",
      "i q",
      "Â ¢",
      "pp pp",
      "s t",
      "n m",
      "w r",
      "b p",
      "u t",
      "v s",
      "i r",
      "m l",
      "k t",
      "w n",
      "pp n",
      "r s",
      "j s",
      "x q",
      "i n",
      "p s",
      "x o",
      "u l",
      "v m",
      "Â ¤",
      "q s",
      "k l",
      "j m",
      "r m",
      "t l",
      "h o",
      "a p",
      "h q",
      "Â ¥",
      "o s",
      "w s",
      "x r",
      "p m",
      "q m",
      "u u",
      "v t",
      "Â ¦",
      "v l",
      "o m",
      "j t",
      "i s",
      "k u",
      "x n",
      "w m",
      "Â §",
      "h n",
      "h r",
      "j l",
      "y q",
      "i m",
      "p t",
      "k k",
      "s l",
      "p l",
      "y o",
      "Â ¨",
      "w t",
      "u k",
      "x s",
      "y r",
      "n t",
      "g q",
      "g o",
      "z r",
      "qp o",
      "Â ©",
      "v u",
      "w l",
      "r t",
      "i t",
      "op q",
      "i l",
      "pp s",
      "x m",
      "pp m",
      "op o",
      "n l",
      "qp q",
      "h s",
      "j u",
      "z q",
      "v k",
      "y n",
      "h m",
      "r l",
      "Â ª",
      "g n",
      "j k",
      "p u",
      "z o",
      "x t",
      "g r",
      "y s",
      "l u",
      "p k",
      "Â «",
      "f o",
      "v v",
      "w u",
      "q t",
      "x l",
      "f q",
      "k pp",
      "t u",
      "i u",
      "y m",
      "v Ãł",
      "m u",
      "h t",
      "j v",
      "g s",
      "h l",
      "k v",
      "j pp",
      "z n",
      "Â Ń",
      "r Ãł",
      "u Ãł",
      "w k",
      "y t",
      "Â ®",
      "g m",
      "w Ãł",
      "p v",
      "o t",
      "Â ¯",
      "s Ãł",
      "q l",
      "s u",
      "f n",
      "v pp",
      "j j",
      "f r",
      "i k",
      "op r",
      "x u",
      "t Ãł",
      "n u",
      "Â °",
      "y l",
      "s pp",
      "m pp",
      "qp r",
      "o l",
      "p j",
      "t k",
      "s k",
      "p w",
      "x Ãł",
      "e o",
      "q Ãł",
      "n pp",
      "h u",
      "l pp",
      "t pp",
      "z m",
      "l k",
      "z s",
      "j w",
      "p i",
      "rp o",
      "e q",
      "np o",
      "x k",
      "r u",
      "i pp",
      "Â ±",
      "m k",
      "v j",
      "op n",
      "rp q",
      "u pp",
      "g t",
      "np q",
      "v w",
      "qp n",
      "y Ãł",
      "Y p",
      "g l",
      "h k",
      "f m",
      "w pp",
      "f s",
      "e r",
      "w v",
      "z t",
      "i v",
      "y u",
      "Â ²",
      "p x",
      "z Ãł",
      "w j",
      "r pp",
      "e n",
      "y k",
      "u v",
      "p h",
      "r k",
      "i j",
      "z l",
      "x pp",
      "X p",
      "d o",
      "x v",
      "g u",
      "d q",
      "l v",
      "t v",
      "n k",
      "Â ¶",
      "Â ´",
      "j i",
      "h pp",
      "p Ãł",
      "w w",
      "m v",
      "g k",
      "s v",
      "f l",
      "f t",
      "j op",
      "o Ãł",
      "p y",
      "z u",
      "h v",
      "j qp",
      "j x",
      "w i",
      "Â µ",
      "e s",
      "e m",
      "j Ãł",
      "q u",
      "p g",
      "z k",
      "np r",
      "i w",
      "o u",
      "np n",
      "rp r",
      "rp n",
      "d n",
      "Â ·",
      "q pp",
      "d r",
      "n Ãł",
      "p f",
      "i Ãł",
      "y v",
      "op s",
      "sp o",
      "i x",
      "j h",
      "q k",
      "i qp",
      "Z p",
      "mp o",
      "y pp",
      "m Ãł",
      "w x",
      "m op",
      "Â ¸",
      "g v",
      "c o",
      "e l",
      "i op",
      "h Ãł",
      "e t",
      "m qp",
      "f u",
      "j y",
      "g pp",
      "f k",
      "w qp",
      "s qp",
      "l op",
      "r v",
      "p z",
      "w op",
      "l Ãł",
      "c q",
      "w h",
      "Â ¹",
      "t qp",
      "l qp",
      "n v",
      "i i",
      "k Ãł",
      "j rp",
      "sp q",
      "Ā {",
      "p d",
      "z v",
      "k qp",
      "s op",
      "j np",
      "g Ãł",
      "Â º",
      "mp q",
      "x x",
      "i h",
      "p e",
      "u qp",
      "k op",
      "t op",
      "u j",
      "t j",
      "s j",
      "l w",
      "i y",
      "x w",
      "x j",
      "c n",
      "u op",
      "k w",
      "l j",
      "Ā |",
      "h w",
      "m w",
      "t w",
      "k j",
      "f Ãł",
      "m j",
      "c r",
      "u w",
      "d s",
      "z pp",
      "h j",
      "f v",
      "{ Ā",
      "o pp",
      "Â »",
      "k x",
      "d m",
      "f pp",
      "h qp",
      "Â ¼",
      "s w",
      "x i",
      "v qp",
      "h op",
      "b o",
      "p c",
      "v op",
      "y j",
      "u x",
      "u i",
      "b q",
      "y w",
      "l x",
      "sp n",
      "g w",
      "h x",
      "| Ā",
      "sp r",
      "v x",
      "mp r",
      "t i",
      "o k",
      "t x",
      "m x",
      "e Ãł",
      "Â ½",
      "y x",
      "g j",
      "g x",
      "v i",
      "h i",
      "m np",
      "l np",
      "} Ā",
      "k i",
      "mp n",
      "g qp",
      "z w",
      "e u",
      "y i",
      "s i",
      "p b",
      "l i",
      "s x",
      "d t",
      "Â ¾",
      "q v",
      "{ {",
      "l rp",
      "m rp",
      "y qp",
      "p a",
      "Ā }",
      "k rp",
      "d Ãł",
      "k np",
      "m i",
      "g op",
      "t rp",
      "y op",
      "e pp",
      "s np",
      "h h",
      "s rp",
      "z x",
      "z j",
      "b r",
      "b n",
      "g i",
      "W p",
      "o v",
      "d l",
      "~ Ā",
      "f w",
      "Â ¿",
      "t np",
      "u np",
      "u rp",
      "e k",
      "h rp",
      "tp o",
      "c s",
      "Ãł o",
      "Ãł q",
      "lp q",
      "f j",
      "z qp",
      "r w",
      "e v",
      "lp o",
      "u h",
      "tp q",
      "ppp o",
      "z op",
      "Ā ~",
      "y h",
      "r j",
      "r op",
      "z i",
      "n qp",
      "c m",
      "a o",
      "n w",
      "n op",
      "r qp",
      "f x",
      "t h",
      "| {",
      "f qp",
      "n j",
      "a q",
      "k h",
      "g np",
      "c Ãł",
      "g rp",
      "v rp",
      "Ã Ģ",
      "ppp q",
      "x op",
      "g h",
      "y np",
      "v h",
      "v np",
      "ġ Ā",
      "f op",
      "{ |",
      "f i",
      "l h",
      "y rp",
      "x qp",
      "oo o",
      "V p",
      "d k",
      "d u",
      "qq o",
      "c t",
      "y y",
      "s h",
      "ÂĢ Ā",
      "z h",
      "Ã ģ",
      "e w",
      "i rp",
      "c l",
      "oo q",
      "m h",
      "Ā ġ",
      "w np",
      "g y",
      "Ãł r",
      "i np",
      "qq q",
      "w rp",
      "qo q",
      "u y",
      "l y",
      "d pp",
      "e j",
      "Y q",
      "n x",
      "k y",
      "} {",
      "a r",
      "Âģ Ā",
      "U p",
      "Y o",
      "z np",
      "t y",
      "b s",
      "m y",
      "Ã Ĥ",
      "v y",
      "Ãł n",
      "a n",
      "{ }",
      "z rp",
      "| |",
      "s y",
      "x h",
      "z y",
      "f h",
      "d v",
      "b m",
      "w y",
      "b Ãł",
      "f rp",
      "qp s",
      "f np",
      "c u",
      "Ã ĥ",
      "r x",
      "ÂĤ Ā",
      "e x",
      "g g",
      "tp n",
      "e i",
      "P p",
      "op m",
      "u z",
      "lp r",
      "g z",
      "l mp",
      "T p",
      "Ā ÂĢ",
      "e qp",
      "pp t",
      "j z",
      "a Ãł",
      "sp s",
      "b t",
      "x rp",
      "pppp pppp",
      "k z",
      "e op",
      "up o",
      "Ā `",
      "r i",
      "x np",
      "pp l",
      "f y",
      "| }",
      "d j",
      "qp m",
      "u g",
      "k mp",
      "h y",
      "h np",
      "Ã Ħ",
      "tp r",
      "l z",
      "u mp",
      "k sp",
      "Ãł s",
      "j g",
      "v z",
      "u sp",
      "kp q",
      "kp o",
      "Ãł m",
      "v g",
      "~ {",
      "k g",
      "lp n",
      "d w",
      "l sp",
      "a s",
      "t z",
      "i z",
      "x y",
      "t mp",
      "up q",
      "Âĥ Ā"
    ]
  }
}