{
  "version": "1.0",
  "truncation": null,
  "padding": null,
  "added_tokens": [],
  "normalizer": null,
  "pre_tokenizer": {
    "type": "ByteLevel",
    "add_prefix_space": false,
    "trim_offsets": true,
    "use_regex": true
  },
  "post_processor": {
    "type": "ByteLevel",
    "add_prefix_space": true,
    "trim_offsets": false,
    "use_regex": true
  },
  "decoder": {
    "type": "ByteLevel",
    "add_prefix_space": true,
    "trim_offsets": true,
    "use_regex": true
  },
  "model": {
    "type": "BPE",
    "dropout": null,
    "unk_token": null,
    "continuing_subword_prefix": null,
    "end_of_word_suffix": null,
    "fuse_unk": false,
    "byte_fallback": false,
    "ignore_merges": false,
    "vocab": {
      "\u0000": 0,
      "\u0001": 1,
      "\u0002": 2,
      "\u0003": 3,
      "\u0004": 4,
      "\u0005": 5,
      "\u0006": 6,
      "\u0007": 7,
      "\b": 8,
      "\t": 9,
      "\n": 10,
      "\u000b": 11,
      "\f": 12,
      "\r": 13,
      "\u000e": 14,
      "\u000f": 15,
      "\u0010": 16,
      "\u0011": 17,
      "\u0012": 18,
      "\u0013": 19,
      "\u0014": 20,
      "\u0015": 21,
      "\u0016": 22,
      "\u0017": 23,
      "\u0018": 24,
      "\u0019": 25,
      "\u001a": 26,
      "\u001b": 27,
      "\u001c": 28,
      "\u001d": 29,
      "\u001e": 30,
      "\u001f": 31,
      " ": 32,
      "!": 33,
      "\"": 34,
      "#": 35,
      "$": 36,
      "%": 37,
      "&": 38,
      "'": 39,
      "(": 40,
      ")": 41,
      "*": 42,
      "+": 43,
      ",": 44,
      "-": 45,
      ".": 46,
      "/": 47,
      "0": 48,
      "1": 49,
      "2": 50,
      "3": 51,
      "4": 52,
      "5": 53,
      "6": 54,
      "7": 55,
      "8": 56,
      "9": 57,
      ":": 58,
      ";": 59,
      "<": 60,
      "=": 61,
      ">": 62,
      "?": 63,
      "@": 64,
      "A": 65,
      "B": 66,
      "C": 67,
      "D": 68,
      "E": 69,
      "F": 70,
      "G": 71,
      "H": 72,
      "I": 73,
      "J": 74,
      "K": 75,
      "L": 76,
      "M": 77,
      "N": 78,
      "O": 79,
      "P": 80,
      "Q": 81,
      "R": 82,
      "S": 83,
      "T": 84,
      "U": 85,
      "V": 86,
      "W": 87,
      "X": 88,
      "Y": 89,
      "Z": 90,
      "[": 91,
      "\\": 92,
      "]": 93,
      "^": 94,
      "_": 95,
      "`": 96,
      "a": 97,
      "b": 98,
      "c": 99,
      "d": 100,
      "e": 101,
      "f": 102,
      "g": 103,
      "h": 104,
      "i": 105,
      "j": 106,
      "k": 107,
      "l": 108,
      "m": 109,
      "n": 110,
      "o": 111,
      "p": 112,
      "q": 113,
      "r": 114,
      "s": 115,
      "t": 116,
      "u": 117,
      "v": 118,
      "w": 119,
      "x": 120,
      "y": 121,
      "z": 122,
      "{": 123,
      "|": 124,
      "}": 125,
      "~": 126,
      "": 127,
      "": 128,
      "": 129,
      "": 130,
      "": 131,
      "": 132,
      "": 133,
      "": 134,
      "": 135,
      "": 136,
      "": 137,
      "": 138,
      "": 139,
      "": 140,
      "": 141,
      "": 142,
      "": 143,
      "": 144,
      "": 145,
      "": 146,
      "": 147,
      "": 148,
      "": 149,
      "": 150,
      "": 151,
      "": 152,
      "": 153,
      "": 154,
      "": 155,
      "": 156,
      "": 157,
      "": 158,
      "": 159,
      " ": 160,
      "¡": 161,
      "¢": 162,
      "£": 163,
      "¤": 164,
      "¥": 165,
      "¦": 166,
      "§": 167,
      "¨": 168,
      "©": 169,
      "ª": 170,
      "«": 171,
      "¬": 172,
      "­": 173,
      "®": 174,
      "¯": 175,
      "°": 176,
      "±": 177,
      "²": 178,
      "³": 179,
      "´": 180,
      "µ": 181,
      "¶": 182,
      "·": 183,
      "¸": 184,
      "¹": 185,
      "º": 186,
      "»": 187,
      "¼": 188,
      "½": 189,
      "¾": 190,
      "¿": 191,
      "À": 192,
      "Á": 193,
      "Â": 194,
      "Ã": 195,
      "Ä": 196,
      "Å": 197,
      "Æ": 198,
      "Ç": 199,
      "È": 200,
      "É": 201,
      "Ê": 202,
      "Ë": 203,
      "Ì": 204,
      "Í": 205,
      "Î": 206,
      "Ï": 207,
      "Ð": 208,
      "Ñ": 209,
      "Ò": 210,
      "Ó": 211,
      "Ô": 212,
      "Õ": 213,
      "Ö": 214,
      "×": 215,
      "Ø": 216,
      "Ù": 217,
      "Ú": 218,
      "Û": 219,
      "Ü": 220,
      "Ý": 221,
      "Þ": 222,
      "ß": 223,
      "à": 224,
      "Ā": 225,
      "ā": 226,
      "Ă": 227,
      "ă": 228,
      "Ą": 229,
      "ą": 230,
      "Ć": 231,
      "ć": 232,
      "Ĉ": 233,
      "ĉ": 234,
      "Ċ": 235,
      "ċ": 236,
      "Č": 237,
      "č": 238,
      "Ď": 239,
      "ď": 240,
      "Đ": 241,
      "đ": 242,
      "Ē": 243,
      "ē": 244,
      "Ĕ": 245,
      "ĕ": 246,
      "Ė": 247,
      "ė": 248,
      "Ę": 249,
      "ę": 250,
      "Ě": 251,
      "ě": 252,
      "Ĝ": 253,
      "ĝ": 254,
      "Ğ": 255,
      "ğ": 256,
      "Ġ": 257,
      "ġ": 258,
      "Ģ": 259,
      "ģ": 260,
      "Ĥ": 261,
      "ĥ": 262,
      "Ħ": 263,
      "ħ": 264,
      "Ĩ": 265,
      "ĩ": 266,
      "Ī": 267,
      "ī": 268,
      "Ĭ": 269,
      "ĭ": 270,
      "Į": 271,
      "į": 272,
      "İ": 273,
      "ı": 274,
      "Ĳ": 275,
      "ĳ": 276,
      "Ĵ": 277,
      "ĵ": 278,
      "Ķ": 279,
      "ķ": 280,
      "ĸ": 281,
      "Ĺ": 282,
      "ĺ": 283,
      "Ļ": 284,
      "ļ": 285,
      "Ľ": 286,
      "ľ": 287,
      "Ŀ": 288,
      "ŀ": 289,
      "Ł": 290,
      "ł": 291,
      "Ń": 292,
      "pp": 293,
      "pppp": 294,
      "pppppppp": 295,
      "pppppppppppppppp": 296,
      "Ãł": 297,
      "ÃłÃł": 298,
      "pppppppppppppppppppppppppppppppp": 299,
      "ĀĀ": 300,
      "ÃłÃłÃłÃł": 301,
      "pppppppppppp": 302,
      "ÃłÃłÃłÃłÃł": 303,
      "pppppppppp": 304,
      "ĀĀĀĀ": 305,
      "ppppppppp": 306,
      "ÂĻ": 307,
      "pppppppppppppppppppppppppppp": 308,
      "pppppppppppppppppppppppppppppppppppppppppppppppppppppppppppp": 309,
      "Âł": 310,
      "pppppppppq": 311,
      "ĀĀĀĀĀĀ": 312,
      "Ãĥ": 313,
      "qo": 314,
      "Âħ": 315,
      "pppppppppppppppppppppppppppppppppppppppp": 316,
      "pppppppppppppppppppppppppppppppppppppppppppppppppppppppppppppppppppppppp": 317,
      "ÂĲ": 318,
      "ppppppppppp": 319,
      "āÂ": 320,
      "Â¡": 321,
      "Â¸": 322,
      "Ãĳ": 323,
      "ÂĦ": 324,
      "ppppppppppppp": 325,
      "po": 326,
      "pppppp": 327,
      "Ãĸ": 328,
      "Â³": 329,
      "pppppppppppppppppppppppppppppppppppppppppppppppppppppppppppppp": 330,
      "Â¬": 331,
      "PP": 332,
      "ÂĲÂĲ": 333,
      "Âĩ": 334,
      "pq": 335,
      "ÂĨ": 336,
      "Âķ": 337,
      "Â¼": 338,
      "qopppppppppppppppppppppppppppppppppppppppppppppppppppppppppppp": 339,
      "Â£": 340,
      "Â¹": 341,
      "Âº": 342,
      "Â·": 343,
      "Âĺ": 344,
      "ĀÂ": 345,
      "Âµ": 346,
      "pppppppppqpppppppppppppppppppppppppppppppppppppppppppppppppppppppppppppp": 347,
      "ÃĢ": 348,
      "rn": 349,
      "ÃĦ": 350,
      "Â»": 351,
      "qpppppppppppppppppppppppppppppppppppppppppppppppppppppppppppp": 352,
      "Â½": 353,
      "Â¿": 354,
      "Â³Â³": 355,
      "Â¬Â¬": 356,
      "--": 357,
      "ZZ": 358,
      "ÂķÂķ": 359,
      "KK": 360,
      "\\\\": 361,
      "ÂĦÂĦ": 362,
      "ÂĩÂĩ": 363,
      "ÂĨÂĨ": 364,
      "Â£Â£": 365,
      "44": 366,
      "==": 367,
      "YY": 368,
      "ďď": 369,
      "ÃĳÃĳ": 370,
      "pppppppppqqopppppppppppppppppppppppppppppppppppppppppppppppppppppppppppp": 371,
      "Â¶": 372,
      "Â²": 373,
      "Ãļ": 374,
      "ÂĢ": 375,
      "ÃĽ": 376,
      "Ãģ": 377,
      "Â¾": 378,
      "pppppppppo": 379,
      "ÃĴ": 380,
      "qn": 381,
      "Â´": 382,
      "ÃĤ": 383,
      "Âģ": 384,
      "Ãķ": 385,
      "qpppppp": 386,
      "Â«": 387,
      "Â¡Â¸": 388,
      "ÃĬ": 389,
      "ppp": 390,
      "Â¯": 391,
      "ÂĬ": 392,
      "Â©": 393,
      "Â°": 394,
      "pppppppppppppppppppppppppppppppppppppppppp": 395,
      "ppppppppppqopppppppppppppppppppppppppppppppppppppppppppppppppppppppppppp": 396,
      "Âĥ": 397,
      "Â®": 398,
      "Â±": 399,
      "pppppppppr": 400,
      "ÂŃ": 401,
      "Ãĭ": 402,
      "Âª": 403,
      "pppppppppppo": 404,
      "ÃĮ": 405,
      "ÂŁ": 406,
      "qppppppppppppppppppppppppppppppppppppppppppppppppppppppppppppp": 407,
      "ÂĤ": 408,
      "Ãħ": 409,
      "ÂĿ": 410,
      "ÃĻ": 411,
      "popp": 412,
      "ÂĹ": 413,
      "ÃĨ": 414,
      "Âı": 415,
      "ppo": 416,
      "Â§": 417,
      "Âļ": 418,
      "Âĵ": 419,
      "ppq": 420,
      "Ãı": 421,
      "pppppppppqrn": 422,
      "ppppppppppqppppppppppppppppppppppppppppppppppppppppppppppppppppppppppppp": 423,
      "pqpp": 424,
      "ro": 425,
      "Âŀ": 426,
      "Â¦": 427,
      "Âĸ": 428,
      "Â¤": 429,
      "ÂĮ": 430,
      "Ãĵ": 431,
      "ÂĶ": 432,
      "Âľ": 433,
      "PPP": 434,
      "PPPPP": 435,
      "ÂĲÂĲÂĲ": 436,
      "ÂĲÂĲÂĲÂĲÂĲ": 437,
      "ÃĶ": 438,
      "Âİ": 439,
      "qp": 440,
      "ÂĽ": 441,
      "ÂĴ": 442,
      "Ãĺ": 443,
      "Â¢": 444,
      "ppppppppppo": 445,
      "ÃĹ": 446,
      "Âĳ": 447,
      "ÃĪ": 448,
      "Ãľ": 449,
      "Ãį": 450,
      "pppppppppppopppppppppppppppppppppppppppppppppppppppppppppppppppppppppppp": 451,
      "pppppppppppppppppppppppppppppppppppppppppppp": 452,
      "Ãĩ": 453,
      "ÂĪ": 454,
      "Â¡Â·": 455,
      "Âī": 456,
      "pr": 457,
      "Â¥": 458,
      "pppppppppopppppppppppppppppppppppppppppppppppppppppppppppppppppppppppppp": 459,
      "pn": 460,
      "rm": 461,
      "Âĭ": 462,
      "Âį": 463,
      "Â¨": 464,
      "qoq": 465,
      "ppppp": 466,
      "ns": 467,
      "Ãİ": 468,
      "ÃĲ": 469,
      "ppppppppprpppppppppppppppppppppppppppppppppppppppppppppppppppppppppppppp": 470,
      "HÃł": 471,
      "or": 472,
      "ppppppppppppppppppppppppppppppppppppppppppp": 473,
      "Ãŀ": 474,
      "ppppppp": 475,
      "pppppppppppppPPPPP": 476,
      "pppppppppppppppppq": 477,
      "Ãī": 478,
      "ÃŁ": 479,
      "oqo": 480,
      "pppppppppqrnpppppppppppppppppppppppppppppppppppppppppppppppppppppppppppp": 481,
      "ppppppppppqo": 482,
      "poq": 483,
      "qpp": 484,
      "āÂ®": 485,
      "pppppppppppppppppo": 486,
      "ÂĻÂĦ": 487,
      "ppppppppppppppppo": 488,
      "qnr": 489,
      "pppppppppqs": 490,
      "Â¡Ā": 491,
      "----": 492,
      "ZZZZ": 493,
      "Â³Â³Â³": 494,
      "Â³Â³Â³Â³Â³": 495,
      "Â¬Â¬Â¬": 496,
      "Â¬Â¬Â¬Â¬Â¬": 497,
      "ÂķÂķÂķ": 498,
      "ÂķÂķÂķÂķÂķ": 499,
      "KKK": 500,
      "KKKKK": 501,
      "\\\\\\": 502,
      "\\\\\\\\\\": 503,
      "ÂĦÂĦÂĦ": 504,
      "ÂĦÂĦÂĦÂĦÂĦ": 505,
      "ÂĩÂĩÂĩ": 506,
      "ÂĩÂĩÂĩÂĩÂĩ": 507,
      "ÂĨÂĨÂĨÂĨ": 508,
      "Â£Â£Â£": 509,
      "Â£Â£Â£Â£Â£": 510,
      "444": 511,
      "44444": 512,
      "===": 513,
      "=====": 514,
      "YYY": 515,
      "YYYYY": 516,
      "ďďď": 517,
      "ďďďďď": 518,
      "ÃĳÃĳÃĳ": 519,
      "ÃĳÃĳÃĳÃĳÃĳ": 520,
      "ZZZZZ": 521,
      "ÂĨÂĨÂĨÂĨÂĨ": 522,
      "-Ā": 523,
      "-----Ā": 524,
      "ps": 525,
      "nt": 526,
      "oo": 527,
      "pppo": 528,
      "ÂĨÂĨÂĨÂĨÂĨĀ": 529,
      "oqp": 530,
      "pppppppppppqpppppppppppppppppppppppppppppppppppppppppppppppppppppppppppp": 531,
      "orn": 532,
      "qqpppppp": 533,
      "āÂ´": 534,
      "pnpp": 535,
      "pppppppppppppYYYYY": 536,
      "mu": 537,
      "qop": 538,
      "ppppppppppq": 539,
      "Â»Ā": 540,
      "prpp": 541,
      "\\ė": 542,
      "pppppppppppppPPPPPp": 543,
      "ppppppppppoqpppppppppppppppppppppppppppppppppppppppppppppppppppppppppppp": 544,
      "KKKKKppppppppppppp": 545,
      "ĀÂ¡": 546,
      "ppppppppppppppppq": 547,
      "āÂ¶": 548,
      ")Â¶": 549,
      "pppppppppppppppppqpppppppppppppppppppppppppppppppppppppppppppp": 550,
      "rms": 551,
      "pppppppppppppKKKKKppppppppppppp": 552,
      "pqpppppp": 553,
      ")Â·": 554,
      "os": 555,
      "qd": 556,
      "IÃł": 557,
      "qopppppppppppppppppppppppppppppppppppppppppp": 558,
      "ÃĿ": 559,
      "āÂ±": 560,
      "nsm": 561,
      "ĠÃłÃłÃłÃłÃł": 562,
      "ao": 563,
      "LÃł": 564,
      "ÂĺÂĦ": 565,
      "qopppppp": 566,
      "'Â¸": 567,
      "qppppppppp": 568,
      "mv": 569,
      "ox": 570,
      "ra": 571,
      "ppppppppppppppppoppppppppppppppppppppppppppppppppppppppppppp": 572,
      "opp": 573,
      "rl": 574,
      "ppopppppppp": 575,
      "āÂ¯": 576,
      "px": 577,
      "qnpppppppppppppppppppppppppppppppppppppppppppppppppppppppppppp": 578,
      "qpppppppppppppppppppppppppppppppppppppppppp": 579,
      "ÃłÂº": 580,
      "popppppppppppppppppppppppppppppppppppppppppppppppppppppppppppp": 581,
      "$Â¿": 582,
      "ppppppppppppppppqopppppppppppppppppppppppppppppppppppppppppp": 583,
      "Ġs": 584,
      "ppppppppppg": 585,
      "ppppppppppppppppqppppppppppppppppppppppppppppppppppppppppppp": 586,
      "ÂĻ~": 587,
      "oy": 588,
      "$Â»": 589,
      "ÃłÂª": 590,
      "popppppp": 591,
      "pppppppppppppppppqpppppppppppppppppppppppppppppppppppppppppp": 592,
      "Â¶Ā": 593,
      "qppppppp": 594,
      "pqo": 595,
      "pppppppppppq": 596,
      "pppppppppqsn": 597,
      "MÃł": 598,
      "]ė": 599,
      "%Â®": 600,
      "RÃł": 601,
      "sk": 602,
      "ppÃĳÃĳÃĳÃĳÃĳ": 603,
      "DÃł": 604,
      "ÂµÃł": 605,
      "orppppppppppp": 606,
      "pppppppppppppppppopppppppppppppppppppppppppppppppppppppppppp": 607,
      "pppppppppqsm": 608,
      "rapqpp": 609,
      "qm": 610,
      "pppppppppqpopppppppppppppppppppppppppppppppppppppppppppppppppppppppppppp": 611,
      "MÃłÃłÃłÃłÃł": 612,
      "oxpopp": 613,
      "%Â®Ě": 614,
      "Vppppppppp": 615,
      "rp": 616,
      "pppq": 617,
      "ppppppppppgoxpopp": 618,
      "tj": 619,
      "ÂĻ\\ė": 620,
      "$ĀĀĀĀĀĀ": 621,
      "JÃł": 622,
      "ppr": 623,
      "ěĀĀĀĀĀĀ": 624,
      "GÃł": 625,
      "eoy": 626,
      "qpppppppp": 627,
      "ĝĀĀĀĀĀĀ": 628,
      "pppppppppppppppppopppppppppppppppppppppppppppppppppppppppppppp": 629,
      "pppppppppppppYYYYYpppppppppppppPPPPPp": 630,
      "pspp": 631,
      "qdpqpp": 632,
      "mt": 633,
      "pps": 634,
      "ppppppppppao": 635,
      "Â´Ą": 636,
      "AÃłÃłÃłÃłÃł": 637,
      "Fpppppppppp": 638,
      "Xn": 639,
      "Ā#": 640,
      "ppppppppps": 641,
      "qnppppppppppp": 642,
      "Â¯ğ": 643,
      "oqooqp": 644,
      ".ĀĀĀĀĀĀ": 645,
      "pppppppppn": 646,
      "āÂŃ": 647,
      "eoypopp": 648,
      "ÃłÃłÃłÃłÃłÃł": 649,
      "pppppppppqqppppppppppppppppppppppppppppppppppppppppppppppppppppppppppppp": 650,
      "ĀÂ¡ā": 651,
      "1Â³": 652,
      "pppppppppppppYYYYYppppppppppppp": 653,
      ">ĀĀĀĀĀĀ": 654,
      "Jpspp": 655,
      "tJpspp": 656,
      "ĀÂŁ": 657,
      "yq": 658,
      "ppoo": 659,
      "ppqpppppppp": 660,
      "ropppppppppppppppppppppppppppppppppppppppppppppppppppppppppppp": 661,
      "pnppFpppppppppp": 662,
      "āÂ¬": 663,
      "āÂ´Ā": 664,
      "āÂ¶Ā": 665,
      "FÃł": 666,
      "pj": 667,
      "ĜĀĀĀĀĀĀ": 668,
      "<ĀĀĀĀĀĀ": 669,
      "ÃłÂµÃł": 670,
      "ÃłÃłÃł": 671,
      "ÂĻÂ¯ğ": 672,
      "Â¸Â»": 673,
      "JÃłÃłÃłÃłÃł": 674,
      "SÃł": 675,
      "ĄÂ»Ā": 676,
      "poo": 677,
      "Â«Ą": 678,
      "epx": 679,
      "āÂ¸": 680,
      "ĀÂ»": 681,
      ".Â±": 682,
      "ăÂ¶Ā": 683,
      "PPPPPp": 684,
      "ppppppppppppppppoqpppppppppppppppppppppppppppppppppppppppppp": 685,
      "sX": 686,
      "lw": 687,
      "pk": 688,
      "sl": 689,
      "ăÂ»Ā": 690,
      "ĀÂĿ": 691,
      "sXprpp": 692,
      "-Â·": 693,
      "sn": 694,
      "ĀÂ«": 695,
      "KÃłÃłÃłÃłÃł": 696,
      "rpppppp": 697,
      "pppppppppppppPPPPPpppppppppppppYYYYYppppppppppppp": 698,
      "BÃłÃłÃłÃłÃł": 699,
      "pl": 700,
      "ppppppppppppÃĳÃĳÃĳÃĳÃĳ": 701,
      "#Â¿": 702,
      "nu": 703,
      "pi": 704,
      "Āā": 705,
      "ÃĸHÃł": 706,
      "āÂ®Ā": 707,
      "pppppppppqpppppppppppppppppqpppppppppppppppppppppppppppppppppppppppppppp": 708,
      "pppppppppppt": 709,
      "rop": 710,
      "#ĀĀĀĀĀĀ": 711,
      "lv": 712,
      "āÂ§": 713,
      "ÃĸMÃł": 714,
      "pqppppppppppp": 715,
      "yqh": 716,
      "-ĀĀĀĀĀĀ": 717,
      "ppppqpppppp": 718,
      "ÃļLÃł": 719,
      "ppopppppp": 720,
      "ÃĹ%": 721,
      "PÃł": 722,
      "ĠÂ¿": 723,
      "ppppppppppppppppppppppppppppppppppppppppppppppppppppppppppppp": 724,
      "pppppppppqqnpppppppppppppppppppppppppppppppppppppppppppppppppppppppppppp": 725,
      "qoqqop": 726,
      "TÃłÃłÃłÃłÃł": 727,
      "ĔĀĀĀĀĀĀ": 728,
      "ÃļÃł": 729,
      "Â´ğ": 730,
      "pppppppppppppPPPPPppppppppppppp": 731,
      "āÂ¤": 732,
      "āÂ¨": 733,
      "'ĀĀĀĀĀĀ": 734,
      "/ĀĀĀĀĀĀ": 735,
      ";ĀĀĀĀĀĀ": 736,
      "OÃł": 737,
      "QÃł": 738,
      "TÃł": 739,
      "lx": 740,
      "pm": 741,
      "ĜÂ·": 742,
      "Â¸Â¸": 743,
      "poppV": 744,
      ";Â«Ą": 745,
      "HÃłÃłÃłÃłÃł": 746,
      "ēĀĀĀĀĀĀ": 747,
      "ĔĀ": 748,
      "mul": 749,
      "GÃłÃłÃłÃłÃł": 750,
      "NÃłÃłÃłÃłÃł": 751,
      "ĜÂ·ĔĀ": 752,
      "!ĀĀĀĀĀĀ": 753,
      "qq": 754,
      "ĂÂĢ": 755,
      "Ãłq": 756,
      "ÃłÃĳ": 757,
      "āÂ·": 758,
      "pqpppppppp": 759,
      ")Â·Ĝ": 760,
      "CÃłÃłÃłÃłÃł": 761,
      "SÃłÃłÃłÃłÃł": 762,
      "ÂĻÂĨ": 763,
      "āÂ©": 764,
      "ooqpppppp": 765,
      ")Â¶Ğ": 766,
      "tJpsppÃĢ": 767,
      "?ĀĀĀĀĀĀ": 768,
      "FÃłÃłÃłÃłÃł": 769,
      "IÃłÃłÃłÃłÃł": 770,
      "QÃłÃłÃłÃłÃł": 771,
      "āÂ¿": 772,
      "ÃĸFÃł": 773,
      "pppppPPPPPp": 774,
      "ÂĻÂĥ": 775,
      "pppppppppqpp": 776,
      "āÂ¥": 777,
      "ÃĸIÃł": 778,
      "DÃłÃłÃłÃłÃł": 779,
      "EÃłÃłÃłÃłÃł": 780,
      "UÃłÃłÃłÃłÃł": 781,
      "ppqpppppp": 782,
      "ÃłÃĥ": 783,
      "ÃłÃļÃł": 784,
      "āÂ«": 785,
      "āÂ°": 786,
      "ppppppppprpppppppppppppppppqpppppppppppppppppppppppppppppppppppppppppppp": 787,
      "ppppppppppooqooqp": 788,
      "pooqpppppp": 789,
      ":Â¬": 790,
      "=ĀĀĀĀĀĀ": 791,
      "`ď": 792,
      "bÃł": 793,
      "pt": 794,
      "sm": 795,
      "ĄÂ´": 796,
      "rmr": 797,
      ")Â¶Ĝ": 798,
      "ppsqqpppppp": 799,
      "_ē": 800,
      "pu": 801,
      "ā`ď": 802,
      "āÂĽ": 803,
      "āÂŁ": 804,
      "Â°ē": 805,
      "ppoppppppp": 806,
      ".Â±%": 807,
      "ĀÂĿā": 808,
      "$Â©": 809,
      "EÃł": 810,
      "Yprpp": 811,
      "oro": 812,
      "sorppppppppppp": 813,
      "Ą]ė": 814,
      "ĀÂ±": 815,
      "Â²1": 816,
      "ÃĺÃł": 817,
      "orpppppp": 818,
      "%Â®ĚĞ": 819,
      "ÃłÃĳÃł": 820,
      "$Â©ę": 821,
      "&ĀĀĀĀĀĀ": 822,
      ",ĀĀĀĀĀĀ": 823,
      "BÃł": 824,
      "WÃł": 825,
      "bn": 826,
      "opppppp": 827,
      "ĜÂ°ē": 828,
      "pppppppppppn": 829,
      "āÂ¦": 830,
      "pqp": 831,
      "ĀÂ¶": 832,
      "Âļĝ": 833,
      "ÃłÃĥÃł": 834,
      "KÃł": 835,
      "TÃłÃłÃł": 836,
      "ky": 837,
      "mw": 838,
      "Ğę": 839,
      "ppn": 840,
      "ÃłTÃłÃłÃł": 841,
      "pqpppppppppppppppppppppppppppppppppppppppppp": 842,
      "rnpppppppppppppppppppppppppppppppppppppppppppppppppppppppppppp": 843,
      "Â¿Â¶": 844,
      "$Â»ě": 845,
      "ĄÂ´ĂÂĢ": 846,
      "+Â§": 847,
      "torppppppppppp": 848,
      "Ā\"": 849,
      "ěÃĹ": 850,
      "ÃłÃĺÃł": 851,
      "pppppppppqpppppppppppppppppopppppppppppppppppppppppppppppppppppppppppppp": 852,
      "Â¸Ā": 853,
      "pppppppppoo": 854,
      "pppoppppppp": 855,
      "+Â§Ğę": 856,
      "kx": 857,
      "rqnr": 858,
      "ğĀĀĀĀĀĀ": 859,
      "ppppppppppps": 860,
      "Â¸Ą": 861,
      "ÃĳHÃł": 862,
      "pop": 863,
      "qpppq": 864,
      "ÃłÂºÃł": 865,
      "to": 866,
      "ĐÂ¡Ā": 867,
      "ĕĀĀĀĀĀĀ": 868,
      "ěÂ¦": 869,
      "pppppppppppppppppppppppppppo": 870,
      "ppppppppppqnpppppppppppppppppppppppppppppppppppppppppppppppppppppppppppp": 871,
      "āÂŀ": 872,
      "Â¡Â¶": 873,
      "rnpppppp": 874,
      "nsn": 875,
      "rls": 876,
      "pprqqpppppp": 877,
      "fÃł": 878,
      "ĔÂŃ": 879,
      "ÂĲÂĦ": 880,
      "āÂ£": 881,
      "āÂ»": 882,
      "poppppppppppp": 883,
      "ÃķIÃł": 884,
      "ÃĮSÃł": 885,
      "āÂ®ĀÂ¡ā": 886,
      "OÃłÃłÃłÃłÃł": 887,
      "kz": 888,
      "nppp": 889,
      "qb": 890,
      "ti": 891,
      "ĀÂ¬": 892,
      "ppppppppppyqh": 893,
      "ÃķHÃł": 894,
      "ÂŃĜÂ·ĔĀ": 895,
      ")Â·ĝ": 896,
      "pppppppppqsmpppppppppppppppppppppppppppppppppppppppppppppppppppppppppppp": 897,
      "2Â³": 898,
      "LÃłÃłÃłÃłÃł": 899,
      "ly": 900,
      "pe": 901,
      "ppppppppppw": 902,
      "ppppppppppqpp": 903,
      "ÂĻÂĤ": 904,
      "ĀÂ¿": 905,
      "ĀÂĢ": 906,
      "ÃĴHÃł": 907,
      "ÃĨfÃł": 908,
      "ppppppppppoppppppppppppppppppppppppppppppppppppppppppppppppppppppppppppp": 909,
      "'Â¸'": 910,
      "pppppppppppppppppppppppppppopppppppppppppppppppppppppppppppppppppppppppp": 911,
      "hÃł": 912,
      "nqp": 913,
      "tm": 914,
      "vg": 915,
      "ėÂ«": 916,
      "Ãłv": 917,
      "ppppppppppv": 918,
      "ppppppppppropppppppppppppppppppppppppppppppppppppppppppppppppppppppppppp": 919,
      "ÂĻÂļĝ": 920,
      "pppppppppppppppppppppppppppppqpppppppppppppppppppppppppppppppppppppppppp": 921,
      "Â¸Â¶": 922,
      "roq": 923,
      "ÃĵDÃł": 924,
      "rlt": 925,
      "āÂ¯Ā": 926,
      "pppppppppqsnpppppppppppppppppppppppppppppppppppppppppppppppppppppppppppp": 927,
      "-Â·ăÂ¶Ā": 928,
      "PÃłÃłÃłÃłÃł": 929,
      "lu": 930,
      "pw": 931,
      "đÂ¯": 932,
      "pppppppppppppppppppppppppppq": 933,
      "ppppppppppn": 934,
      "pppppppppqropppppppppppppppppppppppppppppppppppppppppppppppppppppppppppp": 935,
      "pppppppppppm": 936,
      "āÂļ": 937,
      "Â¸Â¿": 938,
      "popppppppppppppppppppppppppppppppppppppppppp": 939,
      "ĀÂ¦": 940,
      "qnq": 941,
      "Â°Ą": 942,
      "ppqqqpppppp": 943,
      "ntm": 944,
      "muk": 945,
      "ppÃĳÃĳÃĳÃĳÃĳpppppppppppppPPPPPpppppppppppppYYYYYppppppppppppp": 946,
      "%Â»": 947,
      "+Â´ğ": 948,
      ":ÂŃĜÂ·ĔĀ": 949,
      "YÃłq": 950,
      "cÃłÃłÃłÃłÃł": 951,
      "uns": 952,
      "ďÂŃ": 953,
      "ĚĀĀĀĀĀĀ": 954,
      "ppppppppppx": 955,
      "ppppppppppeoypopp": 956,
      "pppppppppqro": 957,
      "āÂľ": 958,
      "popppppppp": 959,
      "Â¬.": 960,
      "ĀÂ®": 961,
      "ÃļHÃł": 962,
      "ÂŁÂ¡": 963,
      "ÃıYÃłq": 964,
      "pnp": 965,
      "$Â¿ĜÂ°ē": 966,
      "tju": 967,
      "pppppppppppppppppppppppppppqpppppppppppppppppppppppppppppppppppppppppppp": 968,
      "YÃłÃłÃłÃłÃł": 969,
      "qqo": 970,
      "qqopppppp": 971,
      "tos": 972,
      "ăÂ»": 973,
      "ĠÃģ": 974,
      "ÃłÃģ": 975,
      "ppppppppppm": 976,
      "pppppppppppl": 977,
      "āÂĿ": 978,
      "pppppppppopp": 979,
      "Â¯ď": 980,
      "prpppppp": 981,
      "slt": 982,
      "ÃıYÃłqÃł": 983,
      "AÃł": 984,
      "on": 985,
      "pg": 986,
      "pv": 987,
      "rr": 988,
      "Āē": 989,
      "ĞĀĀĀĀĀĀ": 990,
      "ÃłÃĵ": 991,
      "ppppppppppu": 992,
      "qoppppppppppp": 993,
      "pppppppppppqp": 994,
      "Â¸Â·": 995,
      "ÃĸJÃł": 996,
      "Â¬(": 997,
      "ĀÂ°": 998,
      "Â¤Ğ": 999,
      "ppppppppppoq": 1000,
      "skt": 1001,
      "ppooppppppp": 1002,
      "ĀÂ»Ā": 1003,
      "%Â®ĚĞĂ": 1004,
      "ph": 1005,
      "uh": 1006,
      "vf": 1007,
      "āÂ¡": 1008,
      "ÃĳAÃł": 1009,
      "pqqopppppp": 1010,
      "Â¼1": 1011,
      "qnpppppp": 1012,
      "Â«+": 1013,
      "ppopqpppppp": 1014,
      "ppppppppppqopppppppppppppppppqpppppppppppppppppppppppppppppppppppppppppp": 1015,
      "pppopppppp": 1016,
      ")Â·Ğ": 1017,
      "Ā#āÂ": 1018,
      ":Â¬ėÂ«": 1019,
      ":Â¬ėÂ«Đ": 1020,
      "RÃłÃłÃłÃłÃł": 1021,
      "jÃł": 1022,
      "so": 1023
    },
    "merges": [
      "p p",
      "pp pp",
      "pppp pppp",
      "pppppppp pppppppp",
      "Ã ł",
      "Ãł Ãł",
      "pppppppppppppppp pppppppppppppppp",
      "Ā Ā",
      "ÃłÃł ÃłÃł",
      "pppppppp pppp",
      "ÃłÃłÃłÃł Ãł",
      "pppppppp pp",
      "ĀĀ ĀĀ",
      "pppppppp p",
      "Â Ļ",
      "pppppppppppppppp pppppppppppp",
      "pppppppppppppppppppppppppppppppp pppppppppppppppppppppppppppp",
      "Â ł",
      "ppppppppp q",
      "ĀĀĀĀ ĀĀ",
      "Ã ĥ",
      "q o",
      "Â ħ",
      "pppppppppppppppppppppppppppppppp pppppppp",
      "pppppppppppppppppppppppppppppppp pppppppppppppppppppppppppppppppppppppppp",
      "Â Ĳ",
      "pppppppppp p",
      "ā Â",
      "Â ¡",
      "Â ¸",
      "Ã ĳ",
      "Â Ħ",
      "pppppppppppp p",
      "p o",
      "pppp pp",
      "Ã ĸ",
      "Â ³",
      "pppppppppppppppppppppppppppppppppppppppppppppppppppppppppppp pp",
      "Â ¬",
      "P P",
      "ÂĲ ÂĲ",
      "Â ĩ",
      "p q",
      "Â Ĩ",
      "Â ķ",
      "Â ¼",
      "qo pppppppppppppppppppppppppppppppppppppppppppppppppppppppppppp",
      "Â £",
      "Â ¹",
      "Â º",
      "Â ·",
      "Â ĺ",
      "Ā Â",
      "Â µ",
      "pppppppppq pppppppppppppppppppppppppppppppppppppppppppppppppppppppppppppp",
      "Ã Ģ",
      "r n",
      "Ã Ħ",
      "Â »",
      "q pppppppppppppppppppppppppppppppppppppppppppppppppppppppppppp",
      "Â ½",
      "Â ¿",
      "Â³ Â³",
      "Â¬ Â¬",
      "- -",
      "Z Z",
      "Âķ Âķ",
      "K K",
      "\\ \\",
      "ÂĦ ÂĦ",
      "Âĩ Âĩ",
      "ÂĨ ÂĨ",
      "Â£ Â£",
      "4 4",
      "= =",
      "Y Y",
      "ď ď",
      "Ãĳ Ãĳ",
      "pppppppppq qopppppppppppppppppppppppppppppppppppppppppppppppppppppppppppp",
      "Â ¶",
      "Â ²",
      "Ã ļ",
      "Â Ģ",
      "Ã Ľ",
      "Ã ģ",
      "Â ¾",
      "ppppppppp o",
      "Ã Ĵ",
      "q n",
      "Â ´",
      "Ã Ĥ",
      "Â ģ",
      "Ã ķ",
      "q pppppp",
      "Â «",
      "Â¡ Â¸",
      "Ã Ĭ",
      "pp p",
      "Â ¯",
      "Â Ĭ",
      "Â ©",
      "Â °",
      "pppppppppppppppppppppppppppppppp pppppppppp",
      "pppppppppp qopppppppppppppppppppppppppppppppppppppppppppppppppppppppppppp",
      "Â ĥ",
      "Â ®",
      "Â ±",
      "ppppppppp r",
      "Â Ń",
      "Ã ĭ",
      "Â ª",
      "ppppppppppp o",
      "Ã Į",
      "Â Ł",
      "qpppppppppppppppppppppppppppppppppppppppppppppppppppppppppppp p",
      "Â Ĥ",
      "Ã ħ",
      "Â Ŀ",
      "Ã Ļ",
      "po pp",
      "Â Ĺ",
      "Ã Ĩ",
      "Â ı",
      "pp o",
      "Â §",
      "Â ļ",
      "Â ĵ",
      "pp q",
      "Ã ı",
      "pppppppppq rn",
      "pppppppppp qppppppppppppppppppppppppppppppppppppppppppppppppppppppppppppp",
      "pq pp",
      "r o",
      "Â ŀ",
      "Â ¦",
      "Â ĸ",
      "Â ¤",
      "Â Į",
      "Ã ĵ",
      "Â Ķ",
      "Â ľ",
      "PP P",
      "PP PPP",
      "ÂĲÂĲ ÂĲ",
      "ÂĲÂĲ ÂĲÂĲÂĲ",
      "Ã Ķ",
      "Â İ",
      "q p",
      "Â Ľ",
      "Â Ĵ",
      "Ã ĺ",
      "Â ¢",
      "pppppppppp o",
      "Ã Ĺ",
      "Â ĳ",
      "Ã Ī",
      "Ã ľ",
      "Ã į",
      "pppppppppppo pppppppppppppppppppppppppppppppppppppppppppppppppppppppppppp",
      "pppppppppppppppppppppppppppppppp pppppppppppp",
      "Ã ĩ",
      "Â Ī",
      "Â¡ Â·",
      "Â ī",
      "p r",
      "Â ¥",
      "pppppppppo pppppppppppppppppppppppppppppppppppppppppppppppppppppppppppppp",
      "p n",
      "r m",
      "Â ĭ",
      "Â į",
      "Â ¨",
      "qo q",
      "pppp p",
      "n s",
      "Ã İ",
      "Ã Ĳ",
      "pppppppppr pppppppppppppppppppppppppppppppppppppppppppppppppppppppppppppp",
      "H Ãł",
      "o r",
      "pppppppppppppppppppppppppppppppp ppppppppppp",
      "Ã ŀ",
      "pppppp p",
      "ppppppppppppp PPPPP",
      "pppppppppppppppp pq",
      "Ã ī",
      "Ã Ł",
      "o qo",
      "pppppppppqrn pppppppppppppppppppppppppppppppppppppppppppppppppppppppppppp",
      "pppppppppp qo",
      "po q",
      "q pp",
      "āÂ ®",
      "pppppppppppppppp po",
      "ÂĻ ÂĦ",
      "pppppppppppppppp o",
      "qn r",
      "pppppppppq s",
      "Â¡ Ā",
      "-- --",
      "ZZ ZZ",
      "Â³Â³ Â³",
      "Â³Â³ Â³Â³Â³",
      "Â¬Â¬ Â¬",
      "Â¬Â¬ Â¬Â¬Â¬",
      "ÂķÂķ Âķ",
      "ÂķÂķ ÂķÂķÂķ",
      "KK K",
      "KK KKK",
      "\\\\ \\",
      "\\\\ \\\\\\",
      "ÂĦÂĦ ÂĦ",
      "ÂĦÂĦ ÂĦÂĦÂĦ",
      "ÂĩÂĩ Âĩ",
      "ÂĩÂĩ ÂĩÂĩÂĩ",
      "ÂĨÂĨ ÂĨÂĨ",
      "Â£Â£ Â£",
      "Â£Â£ Â£Â£Â£",
      "44 4",
      "44 444",
      "== =",
      "== ===",
      "YY Y",
      "YY YYY",
      "ďď ď",
      "ďď ďďď",
      "ÃĳÃĳ Ãĳ",
      "ÃĳÃĳ ÃĳÃĳÃĳ",
      "ZZZZ Z",
      "ÂĨÂĨÂĨÂĨ ÂĨ",
      "- Ā",
      "---- -Ā",
      "p s",
      "n t",
      "o o",
      "pp po",
      "ÂĨÂĨÂĨÂĨÂĨ Ā",
      "o qp",
      "ppppppppppp qpppppppppppppppppppppppppppppppppppppppppppppppppppppppppppp",
      "o rn",
      "q qpppppp",
      "āÂ ´",
      "pn pp",
      "ppppppppppppp YYYYY",
      "m u",
      "qo p",
      "pppppppppp q",
      "Â» Ā",
      "pr pp",
      "\\ ė",
      "pppppppppppppPPPPP p",
      "ppppppppppo qpppppppppppppppppppppppppppppppppppppppppppppppppppppppppppp",
      "KKKKK ppppppppppppp",
      "Ā Â¡",
      "pppppppppppppppp q",
      "āÂ ¶",
      ") Â¶",
      "pppppppppppppppppq pppppppppppppppppppppppppppppppppppppppppppp",
      "rm s",
      "ppppppppppppp KKKKKppppppppppppp",
      "pq pppppp",
      ") Â·",
      "o s",
      "q d",
      "I Ãł",
      "qo pppppppppppppppppppppppppppppppppppppppppp",
      "Ã Ŀ",
      "āÂ ±",
      "ns m",
      "Ġ ÃłÃłÃłÃłÃł",
      "a o",
      "L Ãł",
      "Âĺ ÂĦ",
      "qo pppppp",
      "' Â¸",
      "q ppppppppp",
      "m v",
      "o x",
      "r a",
      "ppppppppppppppppo ppppppppppppppppppppppppppppppppppppppppppp",
      "o pp",
      "r l",
      "ppo pppppppp",
      "āÂ ¯",
      "p x",
      "qn pppppppppppppppppppppppppppppppppppppppppppppppppppppppppppp",
      "q pppppppppppppppppppppppppppppppppppppppppp",
      "Ãł Âº",
      "po pppppppppppppppppppppppppppppppppppppppppppppppppppppppppppp",
      "$ Â¿",
      "pppppppppppppppp qopppppppppppppppppppppppppppppppppppppppppp",
      "Ġ s",
      "pppppppppp g",
      "ppppppppppppppppq ppppppppppppppppppppppppppppppppppppppppppp",
      "ÂĻ ~",
      "o y",
      "$ Â»",
      "Ãł Âª",
      "po pppppp",
      "pppppppppppppppppq pppppppppppppppppppppppppppppppppppppppppp",
      "Â¶ Ā",
      "qpppppp p",
      "p qo",
      "ppppppppppp q",
      "pppppppppqs n",
      "M Ãł",
      "] ė",
      "% Â®",
      "R Ãł",
      "s k",
      "pp ÃĳÃĳÃĳÃĳÃĳ",
      "D Ãł",
      "Âµ Ãł",
      "or ppppppppppp",
      "pppppppppppppppppo pppppppppppppppppppppppppppppppppppppppppp",
      "pppppppppqs m",
      "ra pqpp",
      "q m",
      "pppppppppq popppppppppppppppppppppppppppppppppppppppppppppppppppppppppppp",
      "M ÃłÃłÃłÃłÃł",
      "ox popp",
      "%Â® Ě",
      "V ppppppppp",
      "r p",
      "pp pq",
      "ppppppppppg oxpopp",
      "t j",
      "ÂĻ \\ė",
      "$ ĀĀĀĀĀĀ",
      "J Ãł",
      "pp r",
      "ě ĀĀĀĀĀĀ",
      "G Ãł",
      "e oy",
      "q pppppppp",
      "ĝ ĀĀĀĀĀĀ",
      "pppppppppppppppppo pppppppppppppppppppppppppppppppppppppppppppp",
      "pppppppppppppYYYYY pppppppppppppPPPPPp",
      "ps pp",
      "qd pqpp",
      "m t",
      "pp s",
      "pppppppppp ao",
      "Â´ Ą",
      "A ÃłÃłÃłÃłÃł",
      "F pppppppppp",
      "X n",
      "Ā #",
      "ppppppppp s",
      "qn ppppppppppp",
      "Â¯ ğ",
      "oqo oqp",
      ". ĀĀĀĀĀĀ",
      "ppppppppp n",
      "āÂ Ń",
      "eoy popp",
      "ÃłÃłÃłÃł ÃłÃł",
      "pppppppppq qppppppppppppppppppppppppppppppppppppppppppppppppppppppppppppp",
      "ĀÂ¡ ā",
      "1 Â³",
      "pppppppppppppYYYYY ppppppppppppp",
      "> ĀĀĀĀĀĀ",
      "J pspp",
      "t Jpspp",
      "ĀÂ Ł",
      "y q",
      "ppo o",
      "ppq pppppppp",
      "ro pppppppppppppppppppppppppppppppppppppppppppppppppppppppppppp",
      "pnpp Fpppppppppp",
      "āÂ ¬",
      "āÂ´ Ā",
      "āÂ¶ Ā",
      "F Ãł",
      "p j",
      "Ĝ ĀĀĀĀĀĀ",
      "< ĀĀĀĀĀĀ",
      "Ãł ÂµÃł",
      "ÃłÃł Ãł",
      "ÂĻ Â¯ğ",
      "Â¸ Â»",
      "J ÃłÃłÃłÃłÃł",
      "S Ãł",
      "Ą Â»Ā",
      "po o",
      "Â« Ą",
      "e px",
      "āÂ ¸",
      "ĀÂ »",
      ". Â±",
      "ă Â¶Ā",
      "PPPPP p",
      "ppppppppppppppppo qpppppppppppppppppppppppppppppppppppppppppp",
      "s X",
      "l w",
      "p k",
      "s l",
      "ă Â»Ā",
      "ĀÂ Ŀ",
      "sX prpp",
      "- Â·",
      "s n",
      "ĀÂ «",
      "K ÃłÃłÃłÃłÃł",
      "r pppppp",
      "pppppppppppppPPPPP pppppppppppppYYYYYppppppppppppp",
      "B ÃłÃłÃłÃłÃł",
      "p l",
      "pppppppppppp ÃĳÃĳÃĳÃĳÃĳ",
      "# Â¿",
      "n u",
      "p i",
      "Ā ā",
      "Ãĸ HÃł",
      "āÂ® Ā",
      "pppppppppq pppppppppppppppppqpppppppppppppppppppppppppppppppppppppppppppp",
      "ppppppppppp t",
      "ro p",
      "# ĀĀĀĀĀĀ",
      "l v",
      "āÂ §",
      "Ãĸ MÃł",
      "pq ppppppppppp",
      "yq h",
      "- ĀĀĀĀĀĀ",
      "pppp qpppppp",
      "Ãļ LÃł",
      "ppo pppppp",
      "ÃĹ %",
      "P Ãł",
      "Ġ Â¿",
      "pppppppppppppppppppppppppppppppppppppppppppppppppppppppppppp p",
      "pppppppppq qnpppppppppppppppppppppppppppppppppppppppppppppppppppppppppppp",
      "qoq qop",
      "T ÃłÃłÃłÃłÃł",
      "Ĕ ĀĀĀĀĀĀ",
      "Ãļ Ãł",
      "Â´ ğ",
      "pppppppppppppPPPPP ppppppppppppp",
      "āÂ ¤",
      "āÂ ¨",
      "' ĀĀĀĀĀĀ",
      "/ ĀĀĀĀĀĀ",
      "; ĀĀĀĀĀĀ",
      "O Ãł",
      "Q Ãł",
      "T Ãł",
      "l x",
      "p m",
      "Ĝ Â·",
      "Â¸ Â¸",
      "popp V",
      "; Â«Ą",
      "H ÃłÃłÃłÃłÃł",
      "ē ĀĀĀĀĀĀ",
      "Ĕ Ā",
      "mu l",
      "G ÃłÃłÃłÃłÃł",
      "N ÃłÃłÃłÃłÃł",
      "ĜÂ· ĔĀ",
      "! ĀĀĀĀĀĀ",
      "q q",
      "Ă ÂĢ",
      "Ãł q",
      "Ãł Ãĳ",
      "āÂ ·",
      "pq pppppppp",
      ")Â· Ĝ",
      "C ÃłÃłÃłÃłÃł",
      "S ÃłÃłÃłÃłÃł",
      "ÂĻ ÂĨ",
      "āÂ ©",
      "oo qpppppp",
      ")Â¶ Ğ",
      "tJpspp ÃĢ",
      "? ĀĀĀĀĀĀ",
      "F ÃłÃłÃłÃłÃł",
      "I ÃłÃłÃłÃłÃł",
      "Q ÃłÃłÃłÃłÃł",
      "āÂ ¿",
      "Ãĸ FÃł",
      "ppppp PPPPPp",
      "ÂĻ Âĥ",
      "pppppppppq pp",
      "āÂ ¥",
      "Ãĸ IÃł",
      "D ÃłÃłÃłÃłÃł",
      "E ÃłÃłÃłÃłÃł",
      "U ÃłÃłÃłÃłÃł",
      "pp qpppppp",
      "Ãł Ãĥ",
      "Ãł ÃļÃł",
      "āÂ «",
      "āÂ °",
      "pppppppppr pppppppppppppppppqpppppppppppppppppppppppppppppppppppppppppppp",
      "ppppppppppo oqooqp",
      "poo qpppppp",
      ": Â¬",
      "= ĀĀĀĀĀĀ",
      "` ď",
      "b Ãł",
      "p t",
      "s m",
      "Ą Â´",
      "rm r",
      ")Â¶ Ĝ",
      "pps qqpppppp",
      "_ ē",
      "p u",
      "ā `ď",
      "āÂ Ľ",
      "āÂ Ł",
      "Â° ē",
      "ppo ppppppp",
      ".Â± %",
      "ĀÂĿ ā",
      "$ Â©",
      "E Ãł",
      "Y prpp",
      "o ro",
      "s orppppppppppp",
      "Ą ]ė",
      "ĀÂ ±",
      "Â² 1",
      "Ãĺ Ãł",
      "or pppppp",
      "%Â®Ě Ğ",
      "ÃłÃĳ Ãł",
      "$Â© ę",
      "& ĀĀĀĀĀĀ",
      ", ĀĀĀĀĀĀ",
      "B Ãł",
      "W Ãł",
      "b n",
      "o pppppp",
      "Ĝ Â°ē",
      "ppppppppppp n",
      "āÂ ¦",
      "pq p",
      "ĀÂ ¶",
      "Âļ ĝ",
      "ÃłÃĥ Ãł",
      "K Ãł",
      "T ÃłÃłÃł",
      "k y",
      "m w",
      "Ğ ę",
      "pp n",
      "Ãł TÃłÃłÃł",
      "pq pppppppppppppppppppppppppppppppppppppppppp",
      "rn pppppppppppppppppppppppppppppppppppppppppppppppppppppppppppp",
      "Â¿ Â¶",
      "$Â» ě",
      "ĄÂ´ ĂÂĢ",
      "+ Â§",
      "t orppppppppppp",
      "Ā \"",
      "ě ÃĹ",
      "Ãł ÃĺÃł",
      "pppppppppq pppppppppppppppppopppppppppppppppppppppppppppppppppppppppppppp",
      "Â¸ Ā",
      "pppppppppo o",
      "pppo ppppppp",
      "+Â§ Ğę",
      "k x",
      "r qnr",
      "ğ ĀĀĀĀĀĀ",
      "ppppppppppp s",
      "Â¸ Ą",
      "Ãĳ HÃł",
      "po p",
      "qpp pq",
      "ÃłÂº Ãł",
      "t o",
      "Đ Â¡Ā",
      "ĕ ĀĀĀĀĀĀ",
      "ě Â¦",
      "pppppppppppppppp pppppppppppo",
      "pppppppppp qnpppppppppppppppppppppppppppppppppppppppppppppppppppppppppppp",
      "āÂ ŀ",
      "Â¡ Â¶",
      "rn pppppp",
      "ns n",
      "rl s",
      "ppr qqpppppp",
      "f Ãł",
      "Ĕ ÂŃ",
      "ÂĲ ÂĦ",
      "āÂ £",
      "āÂ »",
      "po ppppppppppp",
      "Ãķ IÃł",
      "ÃĮ SÃł",
      "āÂ® ĀÂ¡ā",
      "O ÃłÃłÃłÃłÃł",
      "k z",
      "n ppp",
      "q b",
      "t i",
      "Ā Â¬",
      "pppppppppp yqh",
      "Ãķ HÃł",
      "ÂŃ ĜÂ·ĔĀ",
      ")Â· ĝ",
      "pppppppppqsm pppppppppppppppppppppppppppppppppppppppppppppppppppppppppppp",
      "2 Â³",
      "L ÃłÃłÃłÃłÃł",
      "l y",
      "p e",
      "pppppppppp w",
      "pppppppppp qpp",
      "ÂĻ ÂĤ",
      "ĀÂ ¿",
      "ĀÂ Ģ",
      "ÃĴ HÃł",
      "ÃĨ fÃł",
      "ppppppppppo ppppppppppppppppppppppppppppppppppppppppppppppppppppppppppppp",
      "'Â¸ '",
      "pppppppppppppppppppppppppppo pppppppppppppppppppppppppppppppppppppppppppp",
      "h Ãł",
      "n qp",
      "t m",
      "v g",
      "ė Â«",
      "Ãł v",
      "pppppppppp v",
      "pppppppppp ropppppppppppppppppppppppppppppppppppppppppppppppppppppppppppp",
      "ÂĻ Âļĝ",
      "pppppppppppppppppppppppppppp pqpppppppppppppppppppppppppppppppppppppppppp",
      "Â¸ Â¶",
      "ro q",
      "Ãĵ DÃł",
      "rl t",
      "āÂ¯ Ā",
      "pppppppppqsn pppppppppppppppppppppppppppppppppppppppppppppppppppppppppppp",
      "-Â· ăÂ¶Ā",
      "P ÃłÃłÃłÃłÃł",
      "l u",
      "p w",
      "đ Â¯",
      "pppppppppppppppp pppppppppppq",
      "pppppppppp n",
      "pppppppppq ropppppppppppppppppppppppppppppppppppppppppppppppppppppppppppp",
      "ppppppppppp m",
      "āÂ ļ",
      "Â¸ Â¿",
      "po pppppppppppppppppppppppppppppppppppppppppp",
      "ĀÂ ¦",
      "qn q",
      "Â° Ą",
      "ppq qqpppppp",
      "nt m",
      "mu k",
      "ppÃĳÃĳÃĳÃĳÃĳ pppppppppppppPPPPPpppppppppppppYYYYYppppppppppppp",
      "% Â»",
      "+ Â´ğ",
      ": ÂŃĜÂ·ĔĀ",
      "Y Ãłq",
      "c ÃłÃłÃłÃłÃł",
      "u ns",
      "ď ÂŃ",
      "Ě ĀĀĀĀĀĀ",
      "pppppppppp x",
      "pppppppppp eoypopp",
      "pppppppppq ro",
      "āÂ ľ",
      "po pppppppp",
      "Â¬ .",
      "ĀÂ ®",
      "Ãļ HÃł",
      "ÂŁ Â¡",
      "Ãı YÃłq",
      "pn p",
      "$Â¿ ĜÂ°ē",
      "tj u",
      "pppppppppppppppppppppppppppq pppppppppppppppppppppppppppppppppppppppppppp",
      "Y ÃłÃłÃłÃłÃł",
      "q qo",
      "q qopppppp",
      "t os",
      "ă Â»",
      "Ġ Ãģ",
      "Ãł Ãģ",
      "pppppppppp m",
      "ppppppppppp l",
      "āÂ Ŀ",
      "pppppppppo pp",
      "Â¯ ď",
      "pr pppppp",
      "sl t",
      "ÃıYÃłq Ãł",
      "A Ãł",
      "o n",
      "p g",
      "p v",
      "r r",
      "Ā ē",
      "Ğ ĀĀĀĀĀĀ",
      "Ãł Ãĵ",
      "pppppppppp u",
      "qo ppppppppppp",
      "ppppppppppp qp",
      "Â¸ Â·",
      "Ãĸ JÃł",
      "Â¬ (",
      "ĀÂ °",
      "Â¤ Ğ",
      "ppppppppppo q",
      "sk t",
      "ppoo ppppppp",
      "ĀÂ» Ā",
      "%Â®ĚĞ Ă",
      "p h",
      "u h",
      "v f",
      "āÂ ¡",
      "Ãĳ AÃł",
      "pq qopppppp",
      "Â¼ 1",
      "qn pppppp",
      "Â« +",
      "ppo pqpppppp",
      "ppppppppppqo pppppppppppppppppqpppppppppppppppppppppppppppppppppppppppppp",
      "pppo pppppp",
      ")Â· Ğ",
      "Ā# āÂ",
      ":Â¬ ėÂ«",
      ":Â¬ėÂ« Đ",
      "R ÃłÃłÃłÃłÃł",
      "j Ãł",
      "s o"
    ]
  }
}