{
  "version": "1.0",
  "truncation": null,
  "padding": null,
  "added_tokens": [],
  "normalizer": null,
  "pre_tokenizer": {
    "type": "ByteLevel",
    "add_prefix_space": false,
    "trim_offsets": true,
    "use_regex": true
  },
  "post_processor": {
    "type": "ByteLevel",
    "add_prefix_space": true,
    "trim_offsets": false,
    "use_regex": true
  },
  "decoder": {
    "type": "ByteLevel",
    "add_prefix_space": true,
    "trim_offsets": true,
    "use_regex": true
  },
  "model": {
    "type": "BPE",
    "dropout": null,
    "unk_token": null,
    "continuing_subword_prefix": null,
    "end_of_word_suffix": null,
    "fuse_unk": false,
    "byte_fallback": false,
    "ignore_merges": false,
    "vocab": {
      "\u0000": 0,
      "\u0001": 1,
      "\u0002": 2,
      "\u0003": 3,
      "\u0004": 4,
      "\u0005": 5,
      "\u0006": 6,
      "\u0007": 7,
      "\b": 8,
      "\t": 9,
      "\n": 10,
      "\u000b": 11,
      "\f": 12,
      "\r": 13,
      "\u000e": 14,
      "\u000f": 15,
      "\u0010": 16,
      "\u0011": 17,
      "\u0012": 18,
      "\u0013": 19,
      "\u0014": 20,
      "\u0015": 21,
      "\u0016": 22,
      "\u0017": 23,
      "\u0018": 24,
      "\u0019": 25,
      "\u001a": 26,
      "\u001b": 27,
      "\u001c": 28,
      "\u001d": 29,
      "\u001e": 30,
      "\u001f": 31,
      " ": 32,
      "!": 33,
      "\"": 34,
      "#": 35,
      "$": 36,
      "%": 37,
      "&": 38,
      "'": 39,
      "(": 40,
      ")": 41,
      "*": 42,
      "+": 43,
      ",": 44,
      "-": 45,
      ".": 46,
      "/": 47,
      "0": 48,
      "1": 49,
      "2": 50,
      "3": 51,
      "4": 52,
      "5": 53,
      "6": 54,
      "7": 55,
      "8": 56,
      "9": 57,
      ":": 58,
      ";": 59,
      "<": 60,
      "=": 61,
      ">": 62,
      "?": 63,
      "@": 64,
      "A": 65,
      "B": 66,
      "C": 67,
      "D": 68,
      "E": 69,
      "F": 70,
      "G": 71,
      "H": 72,
      "I": 73,
      "J": 74,
      "K": 75,
      "L": 76,
      "M": 77,
      "N": 78,
      "O": 79,
      "P": 80,
      "Q": 81,
      "R": 82,
      "S": 83,
      "T": 84,
      "U": 85,
      "V": 86,
      "W": 87,
      "X": 88,
      "Y": 89,
      "Z": 90,
      "[": 91,
      "\\": 92,
      "]": 93,
      "^": 94,
      "_": 95,
      "`": 96,
      "a": 97,
      "b": 98,
      "c": 99,
      "d": 100,
      "e": 101,
      "f": 102,
      "g": 103,
      "h": 104,
      "i": 105,
      "j": 106,
      "k": 107,
      "l": 108,
      "m": 109,
      "n": 110,
      "o": 111,
      "p": 112,
      "q": 113,
      "r": 114,
      "s": 115,
      "t": 116,
      "u": 117,
      "v": 118,
      "w": 119,
      "x": 120,
      "y": 121,
      "z": 122,
      "{": 123,
      "|": 124,
      "}": 125,
      "~": 126,
      "": 127,
      "": 128,
      "": 129,
      "": 130,
      "": 131,
      "": 132,
      "": 133,
      "": 134,
      "": 135,
      "": 136,
      "": 137,
      "": 138,
      "": 139,
      "": 140,
      "": 141,
      "": 142,
      "": 143,
      "": 144,
      "": 145,
      "": 146,
      "": 147,
      "": 148,
      "": 149,
      "": 150,
      "": 151,
      "": 152,
      "": 153,
      "": 154,
      "": 155,
      "": 156,
      "": 157,
      "": 158,
      "": 159,
      " ": 160,
      "¡": 161,
      "¢": 162,
      "£": 163,
      "¤": 164,
      "¥": 165,
      "¦": 166,
      "§": 167,
      "¨": 168,
      "©": 169,
      "ª": 170,
      "«": 171,
      "¬": 172,
      "­": 173,
      "®": 174,
      "¯": 175,
      "°": 176,
      "±": 177,
      "²": 178,
      "³": 179,
      "´": 180,
      "µ": 181,
      "¶": 182,
      "·": 183,
      "¸": 184,
      "¹": 185,
      "º": 186,
      "»": 187,
      "¼": 188,
      "½": 189,
      "¾": 190,
      "¿": 191,
      "À": 192,
      "Á": 193,
      "Â": 194,
      "Ã": 195,
      "Ä": 196,
      "Å": 197,
      "Æ": 198,
      "Ç": 199,
      "È": 200,
      "É": 201,
      "Ê": 202,
      "Ë": 203,
      "Ì": 204,
      "Í": 205,
      "Î": 206,
      "Ï": 207,
      "Ð": 208,
      "Ñ": 209,
      "Ò": 210,
      "Ó": 211,
      "Ô": 212,
      "Õ": 213,
      "Ö": 214,
      "×": 215,
      "Ø": 216,
      "Ù": 217,
      "Ú": 218,
      "Û": 219,
      "Ü": 220,
      "Ý": 221,
      "Þ": 222,
      "ß": 223,
      "à": 224,
      "Ā": 225,
      "ā": 226,
      "Ă": 227,
      "ă": 228,
      "Ą": 229,
      "ą": 230,
      "Ć": 231,
      "ć": 232,
      "Ĉ": 233,
      "ĉ": 234,
      "Ċ": 235,
      "ċ": 236,
      "Č": 237,
      "č": 238,
      "Ď": 239,
      "ď": 240,
      "Đ": 241,
      "đ": 242,
      "Ē": 243,
      "ē": 244,
      "Ĕ": 245,
      "ĕ": 246,
      "Ė": 247,
      "ė": 248,
      "Ę": 249,
      "ę": 250,
      "Ě": 251,
      "ě": 252,
      "Ĝ": 253,
      "ĝ": 254,
      "Ğ": 255,
      "ğ": 256,
      "Ġ": 257,
      "ġ": 258,
      "Ģ": 259,
      "ģ": 260,
      "Ĥ": 261,
      "ĥ": 262,
      "Ħ": 263,
      "ħ": 264,
      "Ĩ": 265,
      "ĩ": 266,
      "Ī": 267,
      "ī": 268,
      "Ĭ": 269,
      "ĭ": 270,
      "Į": 271,
      "į": 272,
      "İ": 273,
      "ı": 274,
      "Ĳ": 275,
      "ĳ": 276,
      "Ĵ": 277,
      "ĵ": 278,
      "Ķ": 279,
      "ķ": 280,
      "ĸ": 281,
      "Ĺ": 282,
      "ĺ": 283,
      "Ļ": 284,
      "ļ": 285,
      "Ľ": 286,
      "ľ": 287,
      "Ŀ": 288,
      "ŀ": 289,
      "Ł": 290,
      "ł": 291,
      "Ń": 292,
      "pp": 293,
      "po": 294,
      "pq": 295,
      "Ãł": 296,
      "qp": 297,
      "op": 298,
      "pn": 299,
      "pr": 300,
      "ppq": 301,
      "ppo": 302,
      "rp": 303,
      "np": 304,
      "qpp": 305,
      "opp": 306,
      "ps": 307,
      "pm": 308,
      "ÂĢ": 309,
      "qq": 310,
      "oo": 311,
      "Âģ": 312,
      "ÂĦ": 313,
      "rpp": 314,
      "npp": 315,
      "ÂĤ": 316,
      "oq": 317,
      "ÂĨ": 318,
      "Âĥ": 319,
      "ÂĲ": 320,
      "Âĩ": 321,
      "rq": 322,
      "nq": 323,
      "mp": 324,
      "pppp": 325,
      "sp": 326,
      "ro": 327,
      "no": 328,
      "Âħ": 329,
      "qo": 330,
      "pt": 331,
      "pl": 332,
      "rr": 333,
      "mpp": 334,
      "spp": 335,
      "nn": 336,
      "ÂĪ": 337,
      "Âķ": 338,
      "Âī": 339,
      "poq": 340,
      "pqo": 341,
      "nr": 342,
      "mq": 343,
      "pqq": 344,
      "ÂĬ": 345,
      "so": 346,
      "poo": 347,
      "sq": 348,
      "mo": 349,
      "Âĭ": 350,
      "rn": 351,
      "ÂĮ": 352,
      "Âį": 353,
      "pu": 354,
      "pk": 355,
      "rs": 356,
      "Âİ": 357,
      "ns": 358,
      "tpp": 359,
      "lpp": 360,
      "Â£": 361,
      "nm": 362,
      "rm": 363,
      "Â¬": 364,
      "popp": 365,
      "pqpp": 366,
      "Âı": 367,
      "to": 368,
      "lq": 369,
      "tq": 370,
      "tp": 371,
      "lo": 372,
      "lp": 373,
      "Âĳ": 374,
      "ÂĴ": 375,
      "mr": 376,
      "Â³": 377,
      "Âĵ": 378,
      "sn": 379,
      "sr": 380,
      "Ãĳ": 381,
      "mn": 382,
      "pqp": 383,
      "ÂĶ": 384,
      "pop": 385,
      "ss": 386,
      "upp": 387,
      "rt": 388,
      "kpp": 389,
      "Âĸ": 390,
      "nt": 391,
      "mm": 392,
      "nl": 393,
      "rl": 394,
      "ÂĹ": 395,
      "kq": 396,
      "ko": 397,
      "uo": 398,
      "rpo": 399,
      "Âĺ": 400,
      "rpq": 401,
      "sm": 402,
      "uq": 403,
      "npo": 404,
      "ppqq": 405,
      "npq": 406,
      "ppoo": 407,
      "ÂĻ": 408,
      "ppoq": 409,
      "ms": 410,
      "ppqo": 411,
      "Âļ": 412,
      "ÂĽ": 413,
      "up": 414,
      "kp": 415,
      "st": 416,
      "Âľ": 417,
      "mt": 418,
      "ml": 419,
      "sl": 420,
      "jq": 421,
      "ÂĿ": 422,
      "ru": 423,
      "vo": 424,
      "jpp": 425,
      "Ãłq": 426,
      "vq": 427,
      "nu": 428,
      "vpp": 429,
      "jo": 430,
      "nk": 431,
      "pnq": 432,
      "Âŀ": 433,
      "rk": 434,
      "Ãło": 435,
      "ÂŁ": 436,
      "pro": 437,
      "Âł": 438,
      "popq": 439,
      "Â¡": 440,
      "nqp": 441,
      "rop": 442,
      "prq": 443,
      "spq": 444,
      "pno": 445,
      "mpq": 446,
      "lt": 447,
      "Â¢": 448,
      "rqp": 449,
      "su": 450,
      "popo": 451,
      "vp": 452,
      "nop": 453,
      "mu": 454,
      "jp": 455,
      "tt": 456,
      "ppp": 457,
      "ll": 458,
      "mk": 459,
      "sk": 460,
      "Â¤": 461,
      "nv": 462,
      "wo": 463,
      "rv": 464,
      "spo": 465,
      "mpo": 466,
      "npr": 467,
      "rpn": 468,
      "iq": 469,
      "rj": 470,
      "wq": 471,
      "io": 472,
      "Â¥": 473,
      "nj": 474,
      "pqpq": 475,
      "tl": 476,
      "Â¦": 477,
      "rpr": 478,
      "wpp": 479,
      "pqpo": 480,
      "npn": 481,
      "Â§": 482,
      "ipp": 483,
      "ts": 484,
      "ls": 485,
      "tm": 486,
      "Â¨": 487,
      "lm": 488,
      "tu": 489,
      "Â©": 490,
      "Ãłu": 491,
      "rw": 492,
      "lu": 493,
      "Âª": 494,
      "ni": 495,
      "pv": 496,
      "Â«": 497,
      "sv": 498,
      "nw": 499,
      "ri": 500,
      "lk": 501,
      "tk": 502,
      "mqp": 503,
      "pj": 504,
      "xo": 505,
      "xq": 506,
      "lr": 507,
      "sop": 508,
      "ho": 509,
      "hq": 510,
      "mv": 511,
      "mj": 512,
      "tr": 513,
      "sj": 514,
      "qpppp": 515,
      "ln": 516,
      "opppp": 517,
      "tn": 518,
      "Ãłk": 519,
      "ÂŃ": 520,
      "sqp": 521,
      "Â®": 522,
      "mop": 523,
      "hpp": 524,
      "Ãłv": 525,
      "Â¯": 526,
      "xpp": 527,
      "Â°": 528,
      "tv": 529,
      "tpq": 530,
      "spn": 531,
      "lpo": 532,
      "Â±": 533,
      "mw": 534,
      "lpq": 535,
      "tpo": 536,
      "mpr": 537,
      "tj": 538,
      "sw": 539,
      "lv": 540,
      "uu": 541,
      "ip": 542,
      "lj": 543,
      "kk": 544,
      "Ãłj": 545,
      "ĀĀ": 546,
      "nx": 547,
      "yo": 548,
      "mi": 549,
      "gq": 550,
      "mpn": 551,
      "go": 552,
      "rx": 553,
      "Â²": 554,
      "yq": 555,
      "si": 556,
      "spr": 557,
      "ppqpp": 558,
      "wp": 559,
      "ppopp": 560,
      "rh": 561,
      "lqp": 562,
      "uk": 563,
      "Ãłt": 564,
      "Â´": 565,
      "nh": 566,
      "pnpp": 567,
      "poqp": 568,
      "Ãłw": 569,
      "popr": 570,
      "pqop": 571,
      "pqqp": 572,
      "ku": 573,
      "poop": 574,
      "top": 575,
      "Âµ": 576,
      "pmq": 577,
      "npppp": 578,
      "pso": 579,
      "pw": 580,
      "Ãłi": 581,
      "rpppp": 582,
      "pi": 583,
      "kt": 584,
      "sx": 585,
      "kl": 586,
      "Â¶": 587,
      "prpp": 588,
      "ju": 589,
      "Â·": 590,
      "kr": 591,
      "vu": 592,
      "poqq": 593,
      "tw": 594,
      "mx": 595,
      "lw": 596,
      "li": 597,
      "pqpn": 598,
      "sh": 599,
      "mh": 600,
      "gpp": 601,
      "ny": 602,
      "pqoo": 603,
      "Â¸": 604,
      "nrp": 605,
      "zo": 606,
      "psq": 607,
      "ur": 608,
      "Â¹": 609,
      "lop": 610,
      "zq": 611,
      "Ãłx": 612,
      "pmo": 613,
      "ut": 614,
      "Âº": 615,
      "fq": 616,
      "nnp": 617,
      "popn": 618,
      "ypp": 619,
      "uv": 620,
      "ks": 621,
      "fo": 622,
      "pqpr": 623,
      "jt": 624,
      "us": 625,
      "rg": 626,
      "km": 627,
      "ry": 628,
      "um": 629,
      "Ãłl": 630,
      "rnp": 631,
      "pqqq": 632,
      "Ãłh": 633,
      "pooo": 634,
      "kv": 635,
      "ng": 636,
      "Â»": 637,
      "ti": 638,
      "nopp": 639,
      "kj": 640,
      "ul": 641,
      "nqpp": 642,
      "nppq": 643,
      "rrp": 644,
      "tqp": 645,
      "Ãłp": 646,
      "pooq": 647,
      "Â¼": 648,
      "vv": 649,
      "prp": 650,
      "uj": 651,
      "rqpp": 652,
      "nppo": 653,
      "Ãłs": 654,
      "pnp": 655,
      "Â½": 656,
      "pppppp": 657,
      "nz": 658,
      "rppo": 659,
      "Â¾": 660,
      "jk": 661,
      "jl": 662,
      "ropp": 663,
      "vk": 664,
      "tx": 665,
      "pqoq": 666,
      "eq": 667,
      "js": 668,
      "my": 669,
      "vt": 670,
      "opo": 671,
      "pqqo": 672,
      "lx": 673,
      "rz": 674,
      "Â¿": 675,
      "rppq": 676,
      "mg": 677,
      "un": 678,
      "uw": 679,
      "fpp": 680,
      "Ãły": 681,
      "vl": 682,
      "vs": 683,
      "{Ā": 684,
      "ÃĢ": 685,
      "Ãłg": 686,
      "qqo": 687,
      "px": 688,
      "eo": 689,
      "th": 690,
      "Ãģ": 691,
      "kw": 692,
      "zpp": 693,
      "kn": 694,
      "vm": 695,
      "rf": 696,
      "ki": 697,
      "sy": 698,
      "ooq": 699,
      "jj": 700,
      "poqo": 701,
      "vw": 702,
      "ui": 703,
      "ÃĤ": 704,
      "|Ā": 705,
      "tpn": 706,
      "lh": 707,
      "mps": 708,
      "kqp": 709,
      "nf": 710,
      "mrp": 711,
      "rqo": 712,
      "spm": 713,
      "Ãĥ": 714,
      "xp": 715,
      "lpr": 716,
      "sg": 717,
      "qqq": 718,
      "vj": 719,
      "iu": 720,
      "snp": 721,
      "}Ā": 722,
      "ÃĦ": 723,
      "pqn": 724,
      "jw": 725,
      "lpn": 726,
      "jv": 727,
      "por": 728,
      "hp": 729,
      "Ãłm": 730,
      "Ãłz": 731,
      "tpr": 732,
      "`Ā": 733,
      "ooo": 734,
      "opr": 735,
      "ty": 736,
      "wu": 737,
      "jm": 738,
      "Ãħ": 739,
      "dq": 740,
      "wk": 741,
      "vi": 742,
      "sz": 743,
      "hu": 744,
      "ji": 745,
      "pqpm": 746,
      "re": 747,
      "vn": 748,
      "~Ā": 749,
      "kx": 750,
      "ly": 751,
      "qpn": 752,
      "mqpp": 753,
      "ġĀ": 754,
      "sqpp": 755,
      "pops": 756,
      "_Ā": 757,
      "mz": 758,
      "ÃĨ": 759,
      "mnp": 760,
      "Ãłf": 761,
      "do": 762,
      "mopp": 763,
      "sopp": 764,
      "jr": 765,
      "wt": 766,
      "Ãĩ": 767,
      "uop": 768,
      "ux": 769,
      "lg": 770,
      "qpq": 771,
      "srp": 772,
      "epp": 773,
      "jn": 774,
      "mpm": 775,
      "ik": 776,
      "sps": 777,
      "ÃĪ": 778,
      "Ãłr": 779,
      "oqo": 780,
      "sf": 781,
      "Ãŀ": 782,
      "tg": 783,
      "qpr": 784,
      "qpo": 785,
      "^Ā": 786,
      "ph": 787,
      "vr": 788,
      "ÃĬ": 789,
      "Ãī": 790,
      "ww": 791,
      "opn": 792,
      "opq": 793,
      "mf": 794,
      "Ãłn": 795,
      "kh": 796,
      "ÃŁ": 797,
      "vx": 798,
      "uh": 799,
      "ii": 800,
      "wl": 801,
      "mppq": 802,
      "sppo": 803,
      "kpq": 804,
      "jx": 805,
      "ÂĢĀ": 806,
      "py": 807,
      "Ãĭ": 808,
      "ÃĿ": 809,
      "kop": 810,
      "il": 811,
      "uqp": 812,
      "tz": 813,
      "mppo": 814,
      "nqo": 815,
      "qpppq": 816,
      "pon": 817,
      "vh": 818,
      "pmpp": 819,
      "uy": 820,
      "sppq": 821,
      "jh": 822,
      "pspp": 823,
      "Ãľ": 824,
      "Ãį": 825,
      "it": 826,
      "plq": 827,
      "ÃĽ": 828,
      "ÃĮ": 829,
      "gp": 830,
      "opppq": 831,
      "upq": 832,
      "]Ā": 833,
      "lrp": 834,
      "xt": 835,
      "wv": 836,
      "jqp": 837,
      "opppo": 838,
      "iv": 839,
      "kpo": 840,
      "Ãİ": 841,
      "cq": 842,
      "qpppo": 843,
      "ky": 844,
      "rÃł": 845,
      "nÃł": 846,
      "Ãı": 847,
      "rppp": 848,
      "ÂģĀ": 849,
      "upo": 850,
      "mÃł": 851,
      "ppopq": 852,
      "ir": 853,
      "dpp": 854,
      "wj": 855,
      "rpppq": 856,
      "lz": 857,
      "kpr": 858,
      "sÃł": 859,
      "se": 860,
      "tnp": 861,
      "ne": 862,
      "ÃĲ": 863,
      "ppqpq": 864,
      "yp": 865,
      "me": 866,
      "iw": 867,
      "co": 868,
      "\\Ā": 869,
      "Ãļ": 870,
      "nppp": 871,
      "npppq": 872,
      "xu": 873,
      "qpl": 874,
      "ij": 875,
      "kpn": 876,
      "vop": 877,
      "xl": 878,
      "pto": 879,
      "ÃĴ": 880,
      "kg": 881,
      "noq": 882,
      "roo": 883,
      "ht": 884,
      "vy": 885,
      "ÂĤĀ": 886,
      "ppqpo": 887,
      "pÃł": 888,
      "tf": 889,
      "mpppp": 890,
      "ops": 891,
      "npppo": 892,
      "Ãĵ": 893,
      "qÃł": 894,
      "wr": 895,
      "Ãĸ": 896,
      "ÃĻ": 897,
      "opt": 898,
      "rpppo": 899,
      "tÃł": 900,
      "upn": 901,
      "Ā{": 902,
      "wn": 903,
      "jy": 904,
      "ptq": 905,
      "Ãĺ": 906,
      "Ypp": 907,
      "in": 908,
      "lÃł": 909,
      "wx": 910,
      "qpm": 911,
      "nqq": 912,
      "[Ā": 913,
      "ix": 914,
      "ppopo": 915,
      "lf": 916,
      "rd": 917,
      "ug": 918,
      "ÃĶ": 919,
      "oÃł": 920,
      "spppp": 921,
      "ih": 922,
      "ÃĹ": 923,
      "plo": 924,
      "pqps": 925,
      "popm": 926,
      "kÃł": 927,
      "jg": 928,
      "jÃł": 929,
      "uz": 930,
      "Ãķ": 931,
      "bo": 932,
      "vg": 933,
      "is": 934,
      "hl": 935,
      "bq": 936,
      "tpm": 937,
      "wi": 938,
      "upr": 939,
      "kz": 940,
      "rqq": 941,
      "sd": 942,
      "vÃł": 943,
      "wh": 944,
      "vz": 945,
      "wm": 946,
      "uÃł": 947,
      "te": 948,
      "ppqn": 949,
      "lnp": 950,
      "pg": 951,
      "im": 952,
      "xj": 953,
      "xv": 954,
      "ÂĥĀ": 955,
      "ws": 956,
      "qps": 957,
      "ppor": 958,
      "cpp": 959,
      "lps": 960,
      "kf": 961,
      "pz": 962,
      "nd": 963,
      "rnpp": 964,
      "wy": 965,
      "iÃł": 966,
      "hk": 967,
      "xk": 968,
      "opm": 969,
      "trp": 970,
      "ig": 971,
      "noo": 972,
      "hr": 973,
      "uf": 974,
      "wÃł": 975,
      "hÃł": 976,
      "jpq": 977,
      "Yq": 978,
      "ÂĦĀ": 979,
      "jop": 980,
      "pos": 981,
      "hv": 982,
      "jz": 983,
      "qpk": 984,
      "gÃł": 985,
      "rrpp": 986,
      "xw": 987,
      "xÃł": 988,
      "rc": 989,
      "nnpp": 990,
      "md": 991,
      "iy": 992,
      "hn": 993,
      "jpo": 994,
      "fÃł": 995,
      "le": 996,
      "qpt": 997,
      "xx": 998,
      "lopp": 999,
      "pqm": 1000,
      "yu": 1001,
      "lqpp": 1002,
      "hw": 1003,
      "hs": 1004,
      "pot": 1005,
      "roq": 1006,
      "vf": 1007,
      "psp": 1008,
      "vpo": 1009,
      "jpr": 1010,
      "aq": 1011,
      "gk": 1012,
      "nrpp": 1013,
      "rmp": 1014,
      "vqp": 1015,
      "ao": 1016,
      "lpm": 1017,
      "jf": 1018,
      "vpq": 1019,
      "yÃł": 1020,
      "topp": 1021,
      "gu": 1022,
      "eÃł": 1023
    },
    "merges": [
      "p p",
      "p o",
      "p q",
      "Ã ł",
      "q p",
      "o p",
      "p n",
      "p r",
      "pp q",
      "pp o",
      "r p",
      "n p",
      "q pp",
      "o pp",
      "p s",
      "p m",
      "Â Ģ",
      "q q",
      "o o",
      "Â ģ",
      "Â Ħ",
      "r pp",
      "n pp",
      "Â Ĥ",
      "o q",
      "Â Ĩ",
      "Â ĥ",
      "Â Ĳ",
      "Â ĩ",
      "r q",
      "n q",
      "m p",
      "pp pp",
      "s p",
      "r o",
      "n o",
      "Â ħ",
      "q o",
      "p t",
      "p l",
      "r r",
      "m pp",
      "s pp",
      "n n",
      "Â Ī",
      "Â ķ",
      "Â ī",
      "po q",
      "pq o",
      "n r",
      "m q",
      "pq q",
      "Â Ĭ",
      "s o",
      "po o",
      "s q",
      "m o",
      "Â ĭ",
      "r n",
      "Â Į",
      "Â į",
      "p u",
      "p k",
      "r s",
      "Â İ",
      "n s",
      "t pp",
      "l pp",
      "Â £",
      "n m",
      "r m",
      "Â ¬",
      "po pp",
      "pq pp",
      "Â ı",
      "t o",
      "l q",
      "t q",
      "t p",
      "l o",
      "l p",
      "Â ĳ",
      "Â Ĵ",
      "m r",
      "Â ³",
      "Â ĵ",
      "s n",
      "s r",
      "Ã ĳ",
      "m n",
      "pq p",
      "Â Ķ",
      "po p",
      "s s",
      "u pp",
      "r t",
      "k pp",
      "Â ĸ",
      "n t",
      "m m",
      "n l",
      "r l",
      "Â Ĺ",
      "k q",
      "k o",
      "u o",
      "r po",
      "Â ĺ",
      "r pq",
      "s m",
      "u q",
      "n po",
      "ppq q",
      "n pq",
      "ppo o",
      "Â Ļ",
      "ppo q",
      "m s",
      "ppq o",
      "Â ļ",
      "Â Ľ",
      "u p",
      "k p",
      "s t",
      "Â ľ",
      "m t",
      "m l",
      "s l",
      "j q",
      "Â Ŀ",
      "r u",
      "v o",
      "j pp",
      "Ãł q",
      "v q",
      "n u",
      "v pp",
      "j o",
      "n k",
      "pn q",
      "Â ŀ",
      "r k",
      "Ãł o",
      "Â Ł",
      "pr o",
      "Â ł",
      "po pq",
      "Â ¡",
      "n qp",
      "r op",
      "pr q",
      "s pq",
      "pn o",
      "m pq",
      "l t",
      "Â ¢",
      "r qp",
      "s u",
      "po po",
      "v p",
      "n op",
      "m u",
      "j p",
      "t t",
      "pp p",
      "l l",
      "m k",
      "s k",
      "Â ¤",
      "n v",
      "w o",
      "r v",
      "s po",
      "m po",
      "n pr",
      "r pn",
      "i q",
      "r j",
      "w q",
      "i o",
      "Â ¥",
      "n j",
      "pq pq",
      "t l",
      "Â ¦",
      "r pr",
      "w pp",
      "pq po",
      "n pn",
      "Â §",
      "i pp",
      "t s",
      "l s",
      "t m",
      "Â ¨",
      "l m",
      "t u",
      "Â ©",
      "Ãł u",
      "r w",
      "l u",
      "Â ª",
      "n i",
      "p v",
      "Â «",
      "s v",
      "n w",
      "r i",
      "l k",
      "t k",
      "m qp",
      "p j",
      "x o",
      "x q",
      "l r",
      "s op",
      "h o",
      "h q",
      "m v",
      "m j",
      "t r",
      "s j",
      "qpp pp",
      "l n",
      "opp pp",
      "t n",
      "Ãł k",
      "Â Ń",
      "s qp",
      "Â ®",
      "m op",
      "h pp",
      "Ãł v",
      "Â ¯",
      "x pp",
      "Â °",
      "t v",
      "t pq",
      "s pn",
      "l po",
      "Â ±",
      "m w",
      "l pq",
      "t po",
      "m pr",
      "t j",
      "s w",
      "l v",
      "u u",
      "i p",
      "l j",
      "k k",
      "Ãł j",
      "Ā Ā",
      "n x",
      "y o",
      "m i",
      "g q",
      "m pn",
      "g o",
      "r x",
      "Â ²",
      "y q",
      "s i",
      "s pr",
      "ppq pp",
      "w p",
      "ppo pp",
      "r h",
      "l qp",
      "u k",
      "Ãł t",
      "Â ´",
      "n h",
      "pn pp",
      "po qp",
      "Ãł w",
      "po pr",
      "pq op",
      "pq qp",
      "k u",
      "po op",
      "t op",
      "Â µ",
      "pm q",
      "npp pp",
      "ps o",
      "p w",
      "Ãł i",
      "rpp pp",
      "p i",
      "k t",
      "s x",
      "k l",
      "Â ¶",
      "pr pp",
      "j u",
      "Â ·",
      "k r",
      "v u",
      "po qq",
      "t w",
      "m x",
      "l w",
      "l i",
      "pq pn",
      "s h",
      "m h",
      "g pp",
      "n y",
      "pq oo",
      "Â ¸",
      "n rp",
      "z o",
      "ps q",
      "u r",
      "Â ¹",
      "l op",
      "z q",
      "Ãł x",
      "pm o",
      "u t",
      "Â º",
      "f q",
      "n np",
      "po pn",
      "y pp",
      "u v",
      "k s",
      "f o",
      "pq pr",
      "j t",
      "u s",
      "r g",
      "k m",
      "r y",
      "u m",
      "Ãł l",
      "r np",
      "pq qq",
      "Ãł h",
      "po oo",
      "k v",
      "n g",
      "Â »",
      "t i",
      "n opp",
      "k j",
      "u l",
      "n qpp",
      "n ppq",
      "r rp",
      "t qp",
      "Ãł p",
      "po oq",
      "Â ¼",
      "v v",
      "pr p",
      "u j",
      "r qpp",
      "n ppo",
      "Ãł s",
      "pn p",
      "Â ½",
      "pppp pp",
      "n z",
      "r ppo",
      "Â ¾",
      "j k",
      "j l",
      "r opp",
      "v k",
      "t x",
      "pq oq",
      "e q",
      "j s",
      "m y",
      "v t",
      "o po",
      "pq qo",
      "l x",
      "r z",
      "Â ¿",
      "r ppq",
      "m g",
      "u n",
      "u w",
      "f pp",
      "Ãł y",
      "v l",
      "v s",
      "{ Ā",
      "Ã Ģ",
      "Ãł g",
      "qq o",
      "p x",
      "e o",
      "t h",
      "Ã ģ",
      "k w",
      "z pp",
      "k n",
      "v m",
      "r f",
      "k i",
      "s y",
      "oo q",
      "j j",
      "po qo",
      "v w",
      "u i",
      "Ã Ĥ",
      "| Ā",
      "t pn",
      "l h",
      "m ps",
      "k qp",
      "n f",
      "m rp",
      "rq o",
      "s pm",
      "Ã ĥ",
      "x p",
      "l pr",
      "s g",
      "qq q",
      "v j",
      "i u",
      "s np",
      "} Ā",
      "Ã Ħ",
      "pq n",
      "j w",
      "l pn",
      "j v",
      "po r",
      "h p",
      "Ãł m",
      "Ãł z",
      "t pr",
      "` Ā",
      "oo o",
      "op r",
      "t y",
      "w u",
      "j m",
      "Ã ħ",
      "d q",
      "w k",
      "v i",
      "s z",
      "h u",
      "j i",
      "pq pm",
      "r e",
      "v n",
      "~ Ā",
      "k x",
      "l y",
      "qp n",
      "m qpp",
      "ġ Ā",
      "s qpp",
      "po ps",
      "_ Ā",
      "m z",
      "Ã Ĩ",
      "m np",
      "Ãł f",
      "d o",
      "m opp",
      "s opp",
      "j r",
      "w t",
      "Ã ĩ",
      "u op",
      "u x",
      "l g",
      "q pq",
      "s rp",
      "e pp",
      "j n",
      "m pm",
      "i k",
      "s ps",
      "Ã Ī",
      "Ãł r",
      "oq o",
      "s f",
      "Ã ŀ",
      "t g",
      "qp r",
      "q po",
      "^ Ā",
      "p h",
      "v r",
      "Ã Ĭ",
      "Ã ī",
      "w w",
      "op n",
      "o pq",
      "m f",
      "Ãł n",
      "k h",
      "Ã Ł",
      "v x",
      "u h",
      "i i",
      "w l",
      "m ppq",
      "s ppo",
      "k pq",
      "j x",
      "ÂĢ Ā",
      "p y",
      "Ã ĭ",
      "Ã Ŀ",
      "k op",
      "i l",
      "u qp",
      "t z",
      "m ppo",
      "nq o",
      "qpp pq",
      "po n",
      "v h",
      "pm pp",
      "u y",
      "s ppq",
      "j h",
      "ps pp",
      "Ã ľ",
      "Ã į",
      "i t",
      "pl q",
      "Ã Ľ",
      "Ã Į",
      "g p",
      "opp pq",
      "u pq",
      "] Ā",
      "l rp",
      "x t",
      "w v",
      "j qp",
      "opp po",
      "i v",
      "k po",
      "Ã İ",
      "c q",
      "qpp po",
      "k y",
      "r Ãł",
      "n Ãł",
      "Ã ı",
      "rpp p",
      "Âģ Ā",
      "u po",
      "m Ãł",
      "ppo pq",
      "i r",
      "d pp",
      "w j",
      "rpp pq",
      "l z",
      "k pr",
      "s Ãł",
      "s e",
      "t np",
      "n e",
      "Ã Ĳ",
      "ppq pq",
      "y p",
      "m e",
      "i w",
      "c o",
      "\\ Ā",
      "Ã ļ",
      "npp p",
      "npp pq",
      "x u",
      "qp l",
      "i j",
      "k pn",
      "v op",
      "x l",
      "pt o",
      "Ã Ĵ",
      "k g",
      "n oq",
      "r oo",
      "h t",
      "v y",
      "ÂĤ Ā",
      "ppq po",
      "p Ãł",
      "t f",
      "m pppp",
      "op s",
      "npp po",
      "Ã ĵ",
      "q Ãł",
      "w r",
      "Ã ĸ",
      "Ã Ļ",
      "op t",
      "rpp po",
      "t Ãł",
      "u pn",
      "Ā {",
      "w n",
      "j y",
      "pt q",
      "Ã ĺ",
      "Y pp",
      "i n",
      "l Ãł",
      "w x",
      "qp m",
      "n qq",
      "[ Ā",
      "i x",
      "ppo po",
      "l f",
      "r d",
      "u g",
      "Ã Ķ",
      "o Ãł",
      "s pppp",
      "i h",
      "Ã Ĺ",
      "pl o",
      "pq ps",
      "po pm",
      "k Ãł",
      "j g",
      "j Ãł",
      "u z",
      "Ã ķ",
      "b o",
      "v g",
      "i s",
      "h l",
      "b q",
      "t pm",
      "w i",
      "u pr",
      "k z",
      "r qq",
      "s d",
      "v Ãł",
      "w h",
      "v z",
      "w m",
      "u Ãł",
      "t e",
      "ppq n",
      "l np",
      "p g",
      "i m",
      "x j",
      "x v",
      "Âĥ Ā",
      "w s",
      "qp s",
      "ppo r",
      "c pp",
      "l ps",
      "k f",
      "p z",
      "n d",
      "r npp",
      "w y",
      "i Ãł",
      "h k",
      "x k",
      "op m",
      "t rp",
      "i g",
      "n oo",
      "h r",
      "u f",
      "w Ãł",
      "h Ãł",
      "j pq",
      "Y q",
      "ÂĦ Ā",
      "j op",
      "po s",
      "h v",
      "j z",
      "qp k",
      "g Ãł",
      "r rpp",
      "x w",
      "x Ãł",
      "r c",
      "n npp",
      "m d",
      "i y",
      "h n",
      "j po",
      "f Ãł",
      "l e",
      "qp t",
      "x x",
      "l opp",
      "pq m",
      "y u",
      "l qpp",
      "h w",
      "h s",
      "po t",
      "r oq",
      "v f",
      "ps p",
      "v po",
      "j pr",
      "a q",
      "g k",
      "n rpp",
      "r mp",
      "v qp",
      "a o",
      "l pm",
      "j f",
      "v pq",
      "y Ãł",
      "t opp",
      "g u",
      "e Ãł"
    ]
  }
}